/**
  ******************************************************************************
  * @file    kws_data_params.c
  * @author  AST Embedded Analytics Research Platform
  * @date    2026-06-24T23:22:49+0800
  * @brief   AI Tool Automatic Code Generator for Embedded NN computing
  ******************************************************************************
  * Copyright (c) 2026 STMicroelectronics.
  * All rights reserved.
  *
  * This software is licensed under terms that can be found in the LICENSE file
  * in the root directory of this software component.
  * If no LICENSE file comes with this software, it is provided AS-IS.
  ******************************************************************************
  */

#include "kws_data_params.h"


/**  Activations Section  ****************************************************/
ai_handle g_kws_activations_table[1 + 2] = {
  AI_HANDLE_PTR(AI_MAGIC_MARKER),
  AI_HANDLE_PTR(NULL),
  AI_HANDLE_PTR(AI_MAGIC_MARKER),
};




/**  Weights Section  ********************************************************/
AI_ALIGNED(32)
const ai_u64 s_kws_weights_array_u64[14605] = {
  0xb94ab8b2bc4ac6e5U, 0x3bc7cb27bc40d751U, 0xbc8b02d937ee007dU, 0x3bb6f10cbc535c0aU,
  0xbb34a1a8bc02ea13U, 0x3a53abb4bb2580fdU, 0xbc4be9d5ba0e08f8U, 0x3c343ad53bd99a79U,
  0xbc61081c3b85536eU, 0x3bc9c9e6bbffe4dbU, 0xbc85f0cdbc259945U, 0xbb879d74bd06cb86U,
  0x3c7284a8380af619U, 0xbc9270b13adaadf4U, 0x3bc9cb33bbc560e1U, 0xbb718e2a3c586e78U,
  0x3b0e38d0bbf9bf92U, 0x3b79f69f3c41f698U, 0xbb812664bc143a8cU, 0x3ab4434ab9c04477U,
  0xbb97d3b1bc38d244U, 0x3a81cabfbb48ed81U, 0xbbe81291baa82c56U, 0x3c9927513c31ebccU,
  0xba2e637e3bf9d70aU, 0xbbfdbdbd3be22f43U, 0xbb4e931ebbd6c157U, 0x3a8bf7c03c21f70bU,
  0xbbc611f33b95480bU, 0xbbd2b55ebc055b87U, 0xbcf99d07bc34e6edU, 0xbbf90f1bbd1e9310U,
  0x3c0f503bbc142febU, 0xbc0abe7a3b1b2d10U, 0x3bde43f4bba561c0U, 0x3c8386193c5cfea1U,
  0xbb6173fd3c4721fdU, 0x399673be3a4e5eecU, 0xbb0ae1033b8611b6U, 0xbc1c8f88bb9a5251U,
  0xbb193995bc8c6172U, 0x3b511c9bba60f33dU, 0x3ab1ed043c3b7572U, 0x3c89627dbc3af5a5U,
  0xbbd2c6bb3c7ad743U, 0x3bbe2d55bb47de03U, 0xbbec2bb1bb0cc39aU, 0x3c472e5a3c0da781U,
  0x3be3801c365daa2aU, 0xbb00e95d3bcda6cbU, 0xbc5eff1abc46c710U, 0xbc310becbcf56c42U,
  0xbaf9038cbb39e310U, 0xbbb995583c203559U, 0x3ca0a2823c0b5726U, 0x3b5c05e63ccf61ceU,
  0xbb04ae1a3c44bd65U, 0x3c099c9b3b2e7abaU, 0xbc05dffdbc2ffa59U, 0x3ad81c4ebc51bb1bU,
  0x3be087073c6dddaaU, 0xbb9afd3f3bde312dU, 0x3c2507933cabc3f7U, 0x3c2c121f3c9dad53U,
  0x3cf9d0ce3cb83c25U, 0x3bd4ac413bd00561U, 0xbbe821d13ac214b8U, 0x3ccfd0d23b097bebU,
  0x3b588dfb3c36ee0fU, 0xbc15e2a2bcdddd5aU, 0xbc9c69c6bca60a20U, 0x3a4b7c5b3c2add19U,
  0xbbe3dfb63c8aa059U, 0x3b6646b43c2edd34U, 0x3c3aca03bb85b88fU, 0x3c1723fbb91ecca3U,
  0x3c1099153c886124U, 0x3adf851e3c114eb1U, 0xb99f35f33bfe44a8U, 0x3c51a6c1bc016deeU,
  0x3c961a943ba23f82U, 0xbbee74113bec7527U, 0xbc402b2c3baa0fd5U, 0x3cac38ccbbad08e8U,
  0xbb5b5a593c389bbcU, 0xba5fdd653b6a1536U, 0xbccfbb87bc809bbaU, 0x3d3138ce3c8a5333U,
  0xbb38f6543c5cf203U, 0xba4da86239c2df58U, 0x3c03e954bbbec31eU, 0x3cedea8a3bbcd86dU,
  0xbae29e283be14d3fU, 0xbbe68f92bb802f43U, 0x3adf2188bc86da30U, 0x3bee7c11bbcb985eU,
  0x3c52069dbc17539eU, 0x3c428ba53bb974d2U, 0x3b0f58433b03cdb4U, 0x3bc0bdcc3a5f290aU,
  0xbc9ac8e2bcc0ecb9U, 0xbcab1565bcfb79ccU, 0xbc8fd25fbcd2a18fU, 0xbc7ce271bcaba6d6U,
  0xbae22f90bc100bc8U, 0xbc9417243c91a810U, 0xbcaef517bcf141f8U, 0x3cbb28aebc072564U,
  0xbcb5d037bbc21752U, 0xbcfec6d0bcb90965U, 0xbcb62f25bcae9581U, 0xbac4b1cbbbaec445U,
  0xbc6c5b883c0ef854U, 0x3755d0453b5150e2U, 0x3b5447a23bcaad3cU, 0xbb08d608bbd9b4ddU,
  0xbc518a31bcda2e61U, 0xbc8c78fb3bb79501U, 0xbca8dff4bbdc1a6dU, 0x39cc5791bb46fca5U,
  0x3c178d70bbb1cbc3U, 0xbbc7ddf53bc97b08U, 0x3a44d26f3cf30289U, 0x3c08980e3b6875b8U,
  0x38f62c6d3c4021a4U, 0x3c3d45e03bf9d37cU, 0x3cbff1b2bb4b0b9aU, 0x3c58bb1b3b3b6508U,
  0x3bea96663cc823d0U, 0x3bec9fb33cacf132U, 0xbb178bb33c4b58c1U, 0x3c7736e33c8bd9a3U,
  0xba2b43f63c3798d7U, 0xbb951a48bbce34b9U, 0x3ba643dd3c22d56dU, 0x3bf1a608b94597e1U,
  0x3cacc7083ca66553U, 0x3ca380573c3ab3a6U, 0x3cdb197e3c16f906U, 0x3d3566c03cf70162U,
  0xbbf854b33c85a15eU, 0xbbd25557bbdb6783U, 0xbc6e4f36bbd92358U, 0xbcb35680bce2f4f1U,
  0xbb8c54b5bb16bacaU, 0xbbfa32dc3af92136U, 0xbc30d86e3c7098aaU, 0x3b128a533b3c8529U,
  0xbc06be433bd87c42U, 0x3cb1aab9bc681be8U, 0x3ade3216ba893afcU, 0xbc5b1611bc1dcb46U,
  0xbcb6fdcfbb0cff12U, 0xbc625f67b98ea10cU, 0xbb271b783b272d39U, 0x3c4442ddbad1921dU,
  0x3b2975cc3c0a32a3U, 0x3c8815263c909063U, 0x3cab5db4baac7012U, 0x3c9fdf683c8ba751U,
  0x3c58333fbc4f9672U, 0xbcd6850cbc9726adU, 0xbc2e566bbc1a1ca5U, 0xbc7d9b0abbfd35a1U,
  0x3bab4366bb7ab19bU, 0x3bfdb8b33b9e4447U, 0xbc0d4f9cba97957fU, 0xb992af323c2432e7U,
  0xbc84bb56ba59cd8fU, 0xbbf0fe07bb0425f5U, 0xbb194a3dbbe82abfU, 0xbc48f95dbc505d9fU,
  0xbcb63c1fbcbb186cU, 0xbd1de64bbcb008d7U, 0xbcc89b40bbe41e38U, 0xbcd4bebebb5262a2U,
  0xbbff6fb2bb267242U, 0xbc10b2fbbc61d63aU, 0xba3d3334bb60787fU, 0x3b99de9dbcb32a39U,
  0xbbb6c0be3bf3c69bU, 0x37ea47bebb3ca13cU, 0x3bd263453acd0a57U, 0xbabe97c7bb0a619eU,
  0x3bf8bae0b8c521b5U, 0x396e38453b702425U, 0xbb1ef403bbea9b1dU, 0x3bb738533ba8b713U,
  0x3bf7aedd3bf7dc6bU, 0xbc26b48c3b8fc7efU, 0xbc5e1433bbd2cd40U, 0x3aedb4fcbcc1d852U,
  0x3b5df626bb3406e4U, 0x3c5ab6f73c891768U, 0x3c0585403c1d3342U, 0xbace620f3b5502f6U,
  0x3bb50be0bb760514U, 0xbb8a51363ba79933U, 0x3bdc517c3b0e95efU, 0xbb932d7c3c0b3b78U,
  0x3be70948bad3faf3U, 0x3abe5f4f3c46673dU, 0xbc11d4a1bbbbd110U, 0x3c205425bba0852bU,
  0x3cfb507a3c7e682cU, 0x3cb51dd53cc6dc22U, 0x3cc1c5343ca8c58dU, 0x3cf9290a3c969c37U,
  0x3c8f65df3c8a9f63U, 0x3a8b48f03bad6830U, 0xbbbfa6b2bc345531U, 0xbafd01d7b92bf551U,
  0x3bab964eba527a82U, 0xbb4c8841bae48a80U, 0x3b2a637f3a6f903dU, 0xbb2a09e7bbb01185U,
  0xb9edffe2bbd42e5cU, 0xbab84a82bba3fa1bU, 0xbb77d0c5bb895bcdU, 0xbbb11237bc4fed3cU,
  0x3bc64b763bcc2feaU, 0xbbb8f59ebc011d0eU, 0xbc1b8559bc1d6aa8U, 0x3c11537ebbc6dc5fU,
  0x3bedd3213bf977b8U, 0x3a4b0a143be61978U, 0x3c4aa0d43c115071U, 0xbadca1853c429e88U,
  0xbb6263b0bb0d5249U, 0xbb95a857bc1012f4U, 0xbb30bbb1bc78b2c9U, 0x3bc73d463bfa3082U,
  0xbc438d05bae6a059U, 0xbaa1789bbbc55130U, 0xbb7892bfbc51878eU, 0xbb87e1c5bc24d2d5U,
  0xbb2980ca3b0b0c2cU, 0xbb1447a2b84b8620U, 0x3bc1f249bbb9ed0aU, 0x3c31b488bb9c4ac9U,
  0xbc1dafd23af3c399U, 0xbca2e8c9bc1eefcfU, 0x3bfcda9dbc4bbc6bU, 0xbca39571bbc41e2aU,
  0xbcee99a9bce059b9U, 0x3c2da3f13a599911U, 0x3c44eef73a663cf7U, 0x3c7dc4e13c99e901U,
  0x3c9f1e033c908cb4U, 0x3bc6f613bb3ec9e6U, 0x3c6e443b3ba8b73cU, 0xbb209f2e3c2eded6U,
  0xba173f00bc824d2dU, 0x3ad5a414bc31937dU, 0xbb8bea23bc93499bU, 0x3bfbdfaa3bf6f696U,
  0xbb6210b3bbdb9c61U, 0x3a2b3872bc1c516dU, 0xbbe6f3553b58d1beU, 0x3bbb73cc3c5639d1U,
  0x3c24206c3b51831cU, 0x3d3cc8673c9e41d2U, 0x3d07eb093d28421bU, 0x3cc471043d5faa1aU,
  0xbb2b32073bbe1cb7U, 0xbc260c19bb61b619U, 0xbc6d5c7ebb99b446U, 0x3c4d76c53bc171d8U,
  0xbab83438bc3fdbb7U, 0xbcb4cd7fbc9a8985U, 0xbc34a636bc8e3518U, 0xbafb948c3a88209eU,
  0x3c34aefbbb7d23c4U, 0xbc752c063a8b4db6U, 0xbb098ac03c6e581aU, 0x3a29e3c3bbcc23cfU,
  0xbadce17a3c166c2bU, 0xbba199f8bc39f3d1U, 0x3b0fc5c0bc19257dU, 0xbc70feb43b2adf62U,
  0xbb90f44ebc099976U, 0x3cb51fba3ca26de4U, 0x3c98a3103cb98daaU, 0x3ceb8d0d3ce25993U,
  0xbc9ae5a23bdfa9f3U, 0x3afb3c3dbc90a0d6U, 0xbb570df9bca8a62aU, 0x3a3aa2b1bc47c0e3U,
  0xbc9a07c7bafe8ae9U, 0xbc1a17e2bbc45982U, 0xbc21c609bc524f85U, 0xbc0866bcbc38711aU,
  0x3c3cbd2b3caca44aU, 0x3be101b63c96e55dU, 0x3ca185fd3c671e70U, 0x3c4535ee3ccc2756U,
  0x3b6b69ef38f0b633U, 0x3bdb046b3ca18d32U, 0x3c36faa63c1d67f4U, 0x3c0392adbc64d6ceU,
  0xbb98ececbc823dbcU, 0xb9e16cf9bbf8212fU, 0xbbf84dac3b07d71cU, 0x3b8cdcd0bc86f804U,
  0xbc8b68fdbc62ba28U, 0xbb15a7383bd52c3cU, 0xbc7d21e03b1cd42fU, 0x3c13b833bcaed1e9U,
  0xbc2b38403c736144U, 0x3be3460a3b4f10d3U, 0xbb9ff9ffbbb9fc82U, 0x3be94072bc4bd17dU,
  0x3c111f833c276516U, 0x3c122d53b9c5f862U, 0x3b7ab17c3c586013U, 0x3c55ea193aaa0d31U,
  0x3c9327503c17cd26U, 0x3c88ac20ba3eec05U, 0x3c952df83c4408a9U, 0x3c079089baa5d1beU,
  0x3c3cbc473b43d46eU, 0xbc1b31c538f7da75U, 0xbb42274e3c365c2fU, 0x3bde1e243be4aaecU,
  0xbb9a15fdb926d17dU, 0xba8a972a3be8f97cU, 0xb9c4e538bbb09497U, 0x3b0d352abb9b0bc6U,
  0x3aefe4b63c650babU, 0x3bc5a4a43cb937adU, 0x3b530e083c74ab2dU, 0x3b3f81983bd8f028U,
  0x3b6735ec39a029eeU, 0x3b62d1183c7b72c7U, 0x3bb92a443b9b8fceU, 0x3b58db1b3c01ee6aU,
  0xbacbd0063bd51308U, 0x3c339e763a221bacU, 0xbb1a1f4fbc0b75edU, 0xbb0491e43c1cb84eU,
  0x3ba01b6ebc28f168U, 0xbcfe67d7bcd7a220U, 0x39992ff9bb935139U, 0xbb9a0dcfbc863af9U,
  0x3a00ee3bbb0219ffU, 0xba83c8663c314b61U, 0xb9cecd333bbcb2b1U, 0xbbff77a4bc8ba8e9U,
  0xbb9be304ba2bd6dcU, 0xbbc3be86b906997eU, 0xba4c96bcbc1c4849U, 0xbc7a7589bc27eb72U,
  0xbc6a1e50bcb65acdU, 0xbba77f26bbad0f71U, 0xbc8c101abcee2125U, 0xbc461bb4bc13a148U,
  0xbba2b942bc41bb41U, 0xbcac8b3dbc73b7b4U, 0xbc1e335dbc300f73U, 0xbca15f5dbc402bddU,
  0xbcac1d1ebb202095U, 0xbc89105ebcb6c35aU, 0x3c142efbbcc13043U, 0x3cb004ad3b798ae9U,
  0xbc5004ae39ce7dacU, 0xbb74d957bcec6a12U, 0xba4e13ffbbe9332bU, 0xbca790413c0f1442U,
  0xbcf84927bcaa4137U, 0xbc15710abca49404U, 0x3cc71c643b3c5e3fU, 0x3bfc8c6c3ccb11b1U,
  0x3cbf21e43c578154U, 0x3ba57b7a3c648bd9U, 0xbb05252c3c41dbe7U, 0x3ba4e36bbbce88eaU,
  0x3c75f2a63bf18ab7U, 0x3c9e81293ccdb5f5U, 0xbb88fa0bba8459faU, 0x3c8edb0dbb8b39f4U,
  0x3bdc69693c35fd15U, 0x396c0c3c3d01a9dfU, 0x3cbb03a93ca1692cU, 0x3d54af4b3d3e70adU,
  0x3bdacf443cb0ef02U, 0xbca47e48bb203922U, 0x3aac74aabbcc8189U, 0xbce28328bbcb2e10U,
  0xbc7b8b31bc15b9ceU, 0x3c88062bba47f1edU, 0xb91ad3f03c01270eU, 0x3cd190e53ca873bfU,
  0xbc26b0b63b2b8830U, 0x3c104b62bbca6926U, 0xbb999fca3bc11af2U, 0xbb3f4b22bc08261bU,
  0xbc841805baf189f9U, 0xbca5d80dbc630a4eU, 0x399fe69b3bb6a553U, 0xbc8197d3bb568d6fU,
  0xb990c4ee3b765873U, 0x3c136cf1bb7bcaa0U, 0xbbeb31e8bc45967eU, 0x3c6c6ef1bca86111U,
  0x3cb3fe7c3d0f9364U, 0x3ca13f923c670840U, 0x3b5419cd3c94cc95U, 0xbba4f714bc30466bU,
  0x3ca99d543b1323abU, 0x3bd7adb53c3d1212U, 0x3b768f113c3f2d0eU, 0x3c80aaebbbf7e9bbU,
  0xbbd5218e3ab35c32U, 0xbbe77ca8bc27593eU, 0xbc8d3672bcb65698U, 0xbb8f95fa3bf79aabU,
  0x3adc10debba1174aU, 0x3b1a570ebc097620U, 0xbc3fcf37bb4306cfU, 0xbaacf8c53b14ea47U,
  0x3a4059d83bec8769U, 0x3bcf1d493b0eb255U, 0x3c4e2b003c8b74a3U, 0xbc116ffb3aa2c136U,
  0x3bdeadc4bc2e0c81U, 0x3c2ec11c3b99a1a5U, 0xbba7c43c3b55392bU, 0x3b9d6566badb409aU,
  0xbc814118bc2ab791U, 0xbc9b71413b473979U, 0x3b8f119b3c245381U, 0xbbacd8b93c23761eU,
  0x3b84bc0c3b953722U, 0x3c8c54683bde1374U, 0x3c8782bb3bc6c240U, 0x3b80e5c3bba1f471U,
  0xba0ff2d6bba5d2d0U, 0xbbdcb50a3c39b4c4U, 0x3b81bd3eba6538c4U, 0x3c39a5653b8dc3a4U,
  0xbc1317393c200031U, 0x3b2a409abaaaff23U, 0xbb295f7ebb488cbcU, 0xbcb19f563bf79e33U,
  0xbc86eac9bc6a1b9cU, 0xbce3de97bc56f38aU, 0xbc8cc786bcf44710U, 0xbbf24910bc60930cU,
  0xbcac6775bc8ebfc2U, 0xbc4ddc1ebbd541b0U, 0x3c8f0c92bc060f23U, 0xbc2fcbce3b11063aU,
  0x3c4c6786bbd14bb8U, 0x3bf11c823a15003cU, 0xbc138e66bbb51dddU, 0xbc84488abb27f280U,
  0xbc442e8abbe6ba5dU, 0xbbb236d8bbf8de64U, 0xbc2082e7bcd3c086U, 0xbac4d7a23aa9670aU,
  0xbb780985b9b0ac56U, 0x3b3ad0f73861e5f7U, 0x3ac18314bb36e2c7U, 0x3b1a054c3c277b1eU,
  0xbc0dd0f3bc77eb8dU, 0xbcba545bbc626555U, 0x3b53c3b1bcb32b9aU, 0x3c385b2bbb890244U,
  0xbc960c74bbe00436U, 0xbc4ebfb6bc929817U, 0x3cc7c0dc3ca86a8fU, 0x3c11cbb03b13f418U,
  0x3cc2cc173c870aaeU, 0x3c487ab63c845684U, 0x3ab2b13b3c97b031U, 0x3c45ba4f3ba015ffU,
  0x3c8f533a3b7669f0U, 0x3b827dc93b984208U, 0x3b944b473c4690c4U, 0x3c59ead33b3ab0f8U,
  0x3c456fb8bbfac593U, 0xbb69946a3ad592b3U, 0xbc6dce923c169bddU, 0xbbd489e0bac22b82U,
  0x38317a0c3c5eb503U, 0x3c3f2f38ba4a70fdU, 0x3c29008b3a57dc73U, 0xbb9a4a973b4906eeU,
  0x3c355052ba2b441bU, 0x3bbe2ed6b9affd86U, 0xbc4196833b3624e4U, 0xbc93a01abc57d76bU,
  0xbcd9cdb8bb5c0da4U, 0x3b1e39dfbc6f1c5eU, 0xbc802cefbbf1dbd5U, 0xbb3c616cbc11193bU,
  0xbbde4128bb6135a6U, 0x3bbeadf7bc47af5aU, 0x3bb39be73b4d2c9cU, 0xbc131cbdbc11ef14U,
  0xbb47fb5ebb7515b8U, 0xbca62402bc6e3ca5U, 0x3b9454f0bc430b01U, 0x3bdd3cf73c036eedU,
  0xbbf9ef9bbc572b24U, 0xbcad8c493aeb5299U, 0x3b3fc461bb6f7725U, 0x3c56a3413b69befdU,
  0xbc19cd14bc997f64U, 0xbc47a237bc07a806U, 0xbb0031f9bc0ec24cU, 0xbbcacb32bbdddf88U,
  0x3b1b8f9fbcb0c3d7U, 0xbb34ee04bc1f1894U, 0x3c2201d5baf19e33U, 0x3c0a1248bb9033daU,
  0x3c51b5503c6a92f5U, 0x3caa4c323c1c4642U, 0x3bb3d5783b572c86U, 0x3c770d323b37d404U,
  0x3c0262863a889343U, 0xba3de1ddbc912ef5U, 0x3b14bf97bbb888edU, 0x3c68a1d6bbf279bbU,
  0xbc997cc9bc82fbe1U, 0xbc4baabbbc3d2069U, 0xbc2d1716bb07f5b3U, 0xbc4e00853c53bfeaU,
  0xbc9b9eadbccd4750U, 0xb9958d49bc8a2ce5U, 0x3c3ea6183c29a9f2U, 0xbbab6cb8bc19265aU,
  0x3ba99fe03b3f4c88U, 0x3c2124ea3c83f4f5U, 0x3c83bf373ce00a55U, 0x3c2dd7963cc6f9c0U,
  0xbaa1fed13caa07aeU, 0x3cb4ea7d3d14288cU, 0x3c8d9b4a3cd3c0b6U, 0x3cc1198c3cb21ddcU,
  0x3cd01bb23b71b427U, 0xbb9304983bea1bbdU, 0x3c4e8f3e3b48ad06U, 0x399a4274bca1b86bU,
  0x3c7d45883c9f93e7U, 0xbc8ca5fabc4d38a9U, 0xbc12d7c0bcdc5ac0U, 0xbc378bbabc30cb97U,
  0x3acb3467bc262893U, 0xbc08620f3ca2d7daU, 0xbc1c78f83c00d3d3U, 0xbae7f9853cabae15U,
  0xbce3436cbb55aef9U, 0xbc900f6bbc3b2428U, 0xbbfded87bc3e09dbU, 0xbcc4dedabb50a7deU,
  0x3a61956ebc943306U, 0x3c7fa3593c292ba0U, 0xbbb9985a3a862f85U, 0xbbb8716a3cb5bb84U,
  0x3ba19c52bc086a30U, 0xbbe753e7bc2d6f73U, 0xbb5b7d72ba976c9dU, 0x3b7bb8fb3bbb4e24U,
  0xbc4250ea3a18219bU, 0xbc5c1636bbbd2760U, 0xbb99932ebc4672feU, 0x3b9712873b05da79U,
  0xbbd455efbc32fd29U, 0x3c14ed693b980d54U, 0xbc07be97bc2404c9U, 0x3c784140ba108c11U,
  0xbc4e419bbbffd1a0U, 0x3c7b62ef3c66ad5dU, 0xbcca0851bb3eefc4U, 0xbbcf782fbb9babacU,
  0xbb8206bcba08a050U, 0x3c28cf943a9f86a9U, 0x3baaf6acbc697a8cU, 0xba87726c3bb94d98U,
  0xbc2a6db83b3f4af5U, 0xbd03fb3abcaf8ffeU, 0x3b43363bbc673a83U, 0x3c71caab3cf274d0U,
  0x3be61ca13c4cc0adU, 0x3c5f4657bcc157e7U, 0xbc37c8743c261244U, 0x3bda2bcb3c8e4994U,
  0xba81b08d3bd32582U, 0xbc2bf69dbb63a77dU, 0xbcbf9ee4bc8b84b1U, 0x3b9cdf95bccbde27U,
  0x3c9c0ad83c81ad9aU, 0x3cbcb6bc3c964151U, 0xbbed58fa3af2b4daU, 0x3c5e1a093c49cb30U,
  0xbc2f6c8bbb2806e0U, 0x3c2e1c053af2b58cU, 0xbc4604bfbbf38bf0U, 0xbcd4f50fbc0be76fU,
  0x3b45192cbc3cd047U, 0x3c1e1fcf3bed62ceU, 0xbc72baa0bbf5d8b1U, 0x3be51d84bc305d00U,
  0x3c9941233c9819d6U, 0xbad924b53c99c7faU, 0xbc4deae3bbeca067U, 0x3b8106acbc636b85U,
  0x3bf1bd0e3c5e687fU, 0x3c9cf5273c8c1c8cU, 0xbc539f53ba861e7bU, 0xbc2d4c88bce66bc2U,
  0x3cb6c073bbef87e1U, 0x3bbc077a3c1b90b7U, 0x3b005637b905bad9U, 0xbbcd7f92bbca7c58U,
  0xbbd12c65bc0e8ed8U, 0xbb3b2b11bc4f1352U, 0x3bad3dc4bb7023b9U, 0x3b16e860bbd20407U,
  0x39e90d7bbb9e4fcaU, 0xbc3533a9bac417e1U, 0xbb7f1d5ebc16cdb1U, 0x3c8f28173c45ed0eU,
  0x3ca4ebfd3d04d7a8U, 0xbcc9a28939f3fc39U, 0xbcbf6961bcd33263U, 0xbad18204bc60a14fU,
  0x3c95cdf73c619fb8U, 0x3c12b96f3cc6092dU, 0xbaab57203c445ef3U, 0x3c747e203992e094U,
  0xbbef98c33c7a8af8U, 0xbc7a306e3c0baac9U, 0x3be5ef50bb8c1b95U, 0x3c825eec3d164588U,
  0x3c3579903c96a87eU, 0x382913263ca6872bU, 0x3c09e0d23c86f621U, 0x3b8744eb3c1befa1U,
  0xbc12d811bc31425fU, 0xbc8602893bcbe7e4U, 0xbc289e6c3af0f4a6U, 0x3ca731763ae3f359U,
  0x3c9a90a63bfe0d7cU, 0x3abe48c03c015dbbU, 0xbc5ec5e0bc404487U, 0x3a21c1d3bc928937U,
  0x3cab5eb83b5816bdU, 0x3be11cac3c605f18U, 0xbc9cc4bdbae0fac0U, 0x3c373d773b6feb80U,
  0x3b264e2739d86b02U, 0x3b015475bc915b84U, 0x3c1fb539bc95959eU, 0x3c33e3ff3c3cb9d0U,
  0x3baae292bb76d5d1U, 0x3acdb647bb77fb36U, 0x3bf702d8ba97fee9U, 0xbb8871f33a6b0ffeU,
  0xbaa5d6473b8afd43U, 0xbbc85211ba46812fU, 0xba550b18bb4cd4c8U, 0xbc6d3424bc37cdbaU,
  0xbc8f2f6dba2f35beU, 0x3c4ca1f8bb231c9eU, 0x3c1a92ee39d017ccU, 0x3add88733b8e139bU,
  0x3af671dc3c05dca2U, 0xbaa78dc2bb4f443cU, 0xbbeb0de339b32073U, 0xbc59b330bc1afbc6U,
  0xbbaa6131bbefc2f9U, 0xbbeb7085bbce1b71U, 0x3bb5b4e6ba9ee795U, 0xbbe4d0bdba10d239U,
  0xba431d13bb8d0574U, 0xbc01e14bbbf69f75U, 0xbb22b6df3ac139d2U, 0x3b81ae123bcd33eaU,
  0xbbb88ff83bd651dfU, 0xbba016223c005ac3U, 0xbb89d2c93bc216bcU, 0x3b51155bbaef8a45U,
  0xbba14c6ebbb652f6U, 0x3b96fb31bb315878U, 0xb993d82bba597c49U, 0x3b9122b33a8d0953U,
  0xbaa979c13bd92b37U, 0x39ac0e17b8c8661cU, 0x3a4bce933bf86df9U, 0xbb1eadffbc33df5aU,
  0xbb096ccd3afaa736U, 0xbc1a6c103a76346eU, 0xbaebabeebc03779cU, 0x3af6bf183b99611fU,
  0xbb03ff5ebbacac39U, 0x394972d8bbddf696U, 0x3bd1758639574a8fU, 0x3c40c7fa3b0082b3U,
  0x3bdbeb8cbbc1da88U, 0xbb78aec3bbb803b9U, 0xba66e2ea3b730f26U, 0xbbb3da2cb7075852U,
  0x3a62356abb585261U, 0x3bac0cd0bb60c875U, 0xbb871ea9bba8c1bbU, 0xbc1700b9bbf136a8U,
  0xbbfebaf9bbb8789fU, 0x3b25280bbc275e5aU, 0xbbc32b3fba04a2e8U, 0x3bd17c32bba81001U,
  0xba43f4f4bb5eca5bU, 0xbbdc32d7bc54531bU, 0xbc361bbbbc459dcbU, 0x3bfddd6e3c145746U,
  0x39fde185bb12f37cU, 0xbc1099273c0a4a3eU, 0x3ac1ac7b3b6a452aU, 0x3bc9bb183a088dbdU,
  0x3b343922bc693372U, 0x3b5e0c90bb9eff82U, 0x3cb535393c42822dU, 0x3c057a6f3ccaeafdU,
  0xbcdc10eebbaf4690U, 0xbd00a1d0bd51b4f7U, 0xbc2afb8bbcb00a2dU, 0x3bb58cc53ba6736aU,
  0x3c9a65bd3c8cdcdbU, 0x3b31f7563b9ffb59U, 0xbc997814bc85f5e3U, 0x3a179821bd2878cbU,
  0xbc50741239b47267U, 0x3d1f96413ce8b419U, 0x3cbe7f673c6d25fcU, 0x3c8b7c4f3cb95e07U,
  0x3d0c86b43c097756U, 0xbc6511ee3c810b7cU, 0x3b5784763cc56122U, 0x3d077da63ccdd2f3U,
  0x3b8037e83cc1c7adU, 0x3b1131b6bcfc4bc1U, 0x39d5d1c2bce34c82U, 0x3d2a69473cfe08deU,
  0xbd38f7e33bfe5315U, 0xbb480790bceba41fU, 0x3c0807b3ba926686U, 0xbb93271d3b95196aU,
  0x3c83df403ca45debU, 0xbc7e092dbaccf28bU, 0xbc642391bbc340e9U, 0xbd58c9febca66150U,
  0xbc9d92d8bd662593U, 0xbc48c1febd0e862dU, 0xbb9cc868bbd05114U, 0xbc8bc4073a482073U,
  0xbc161eb6bd0772c3U, 0xbbf5909bbd2f499dU, 0xbc2353a2bb06070aU, 0xbd26e89abceeb6eeU,
  0x3c987e32bc64b2daU, 0x3b4b04cbbbb29622U, 0x3d01083c3bba8dabU, 0x3d65a96a3d7fa495U,
  0xbc7879f13c15b721U, 0xbd1af4bbbc58702aU, 0xbbe7687ebbea34afU, 0xbbec4cf03d27c452U,
  0x3d011caf3ba83382U, 0x3d59c75b3c73ba8aU, 0x3d0680973d3dba6cU, 0xbc14a9db3c51020fU,
  0xbc86f245bc1e9dfbU, 0xbd247c7b3b2cc5deU, 0xbc850d7ebcddab21U, 0x3ca5e4b63ba7ee68U,
  0xbbd4ef3d3bf12debU, 0x3bd4461bbc82be07U, 0x3ca74cbfbc5b1b2cU, 0x3ca049c13c915490U,
  0x3c61387fba787b1cU, 0x3bd93a903b9e5158U, 0x3c3e85313c7692cfU, 0xbc4b38a9bc282a3cU,
  0x3cd309443b31b75fU, 0x3cada5a43d0f98b8U, 0x3a0a485a3c73de96U, 0xbc41bf94bb44dd33U,
  0xbc149575bcb41440U, 0xbbd58e093c092685U, 0xbc4d57953af6833eU, 0x3b9488e23c6cec2eU,
  0x3b53ab343cb2deb5U, 0xbc433efdbc9a3dc5U, 0x3aca68f63b5e04d5U, 0x3c0b72c33ac90286U,
  0x3bb954c53c1963cbU, 0xba00397a3af41867U, 0xba98210d3c0881d6U, 0xbc304557bc06c89eU,
  0x3b9a226c3c2fefdeU, 0x3c9c96293ca3b7e0U, 0x3acf0ab33c22a71eU, 0xbbf1be53bacaec93U,
  0xbaad58a8ba45ac77U, 0x3b185c043c316007U, 0x3b96e9f43bd00dbfU, 0xbb4f38bebb9b54abU,
  0x3ca07ca63c644095U, 0x3c9fc9643cf00b6fU, 0x3c7975bd3d1753feU, 0x3bfd9ca93ba4c87cU,
  0x3add42cf3c48bebaU, 0x3c8ace833bc89616U, 0x3bcdc0c13af898fdU, 0x3acacd9b3925d764U,
  0xba0565e9bba8ee3bU, 0x3b739eb63b9a0b1cU, 0xb9bba54bbab5633bU, 0x3b716a35391a5f45U,
  0x3a6144cfbc08d6b5U, 0xbb811e0fbc927c7fU, 0xbb8cbc5bbabef84cU, 0xbbfb1956ba53dbafU,
  0xbc4d8c323b186643U, 0xbc975e4cbcc962caU, 0xbc735277bccc7b49U, 0x3c1b9fe23bded8c5U,
  0x3b5ae0773bfa8a5eU, 0xbb2bf4b43a69115eU, 0x3c1948813c256f3fU, 0xbc1d3150bc1f88ffU,
  0xbbb8d01fbc77c4edU, 0x3ac633543b893c6aU, 0xbb4b67f53a235c9fU, 0xbbf1a765bc8b4cc3U,
  0xbc387fa53bba5b58U, 0xbbaf2c74bc06b0e0U, 0xbb479794bbfa769dU, 0x3bc54c5a3b36e519U,
  0xbceaea79bcaa2eafU, 0xbc91131ebce860e9U, 0xbb585cc0bce1cb4eU, 0xbba11616bcb6e4f9U,
  0x3c0820febc6c39e8U, 0xbbf3160bbc893c26U, 0xba304781bcbc720aU, 0x3ca7e4f63c548e2aU,
  0x3c37293d3c3c9eafU, 0x3b5a84f33c931e4aU, 0xbaac0a04bb42e908U, 0xbc26e7673cb299c8U,
  0x3c5010b53d33b9d5U, 0x3c772e0e3b2a09b1U, 0xbb27a5a73bbb7480U, 0x3c4b5d1e3c94eee1U,
  0x3b6f6b4c3cd5d665U, 0xbc3e57c23b508f4eU, 0x3be1b2673c200c62U, 0xbbc7e5b83c55206cU,
  0xbc3dc58b3b469936U, 0x3cd518403c5391e4U, 0xbbf2b1723cb29adcU, 0xbbdf401ebb9862e0U,
  0xbc2b4170bc8305fdU, 0xbc7701c3bb2e5561U, 0xbcbd4f30bca7ead9U, 0xbc607ac83b8d123bU,
  0xbc7d5d7fbc280d28U, 0xbc283cb73cd1ec24U, 0xbc11bc7bbbe1b48fU, 0x3c4d08d63c356cafU,
  0x3ca45be03bc80f6aU, 0xbcd24fe63c08d1a9U, 0xbc93c5b9bca488f1U, 0x3c53d5dd3bce1ab1U,
  0x3a9097de3c044cd4U, 0x3b1a3b2a3bc58c65U, 0xbcf45f1d3b92489dU, 0x3c88ddddbb9fed29U,
  0x3d10d7bc3b50645dU, 0x3d8f0d0b3d67f46bU, 0x3bd083d83d2e3876U, 0x3ae924cdbb8c718aU,
  0x3c4ad610bbce6a41U, 0xbce98513bc27cc86U, 0xbc7f1b56bd028d4cU, 0x3bb05bbebbb06a6dU,
  0x3b017bf5bc1f8cb6U, 0xbcdc31303b67cf37U, 0x3c0585c7bc839d95U, 0xbb87c055bb9e13ecU,
  0x3b8b08f83cdf5733U, 0xbcca5b053c1f5b7cU, 0xbca889c6bd3ae05aU, 0xbc1e755abce695a9U,
  0xbccc5986bcc05e13U, 0xbc3e312fbb7ef605U, 0xbb380482bc892413U, 0x3c37c2583af97ce7U,
  0xbb4eab563a649d0aU, 0xbbfe54473c2eee22U, 0xbc1f81863b1972aeU, 0xbcd939febc3b8752U,
  0x3b1dda76bc47771aU, 0x3b9f8a8aba1e2f21U, 0xbcae75f8bc09b1d9U, 0xbbb3cc5a3afffb9eU,
  0xbbd8230d3a8ba249U, 0xbcc7535ebc23276bU, 0xbc2d18f3bca5560bU, 0xbc309755bc4254ceU,
  0xbc8f704fbcb43180U, 0x3b436a533b4812edU, 0xbc2f42fe3c065d26U, 0xbc439042bc40799fU,
  0xbbf969b8bca96c56U, 0x3ad98fb0bc7ee3eeU, 0xbaeef672bb151d94U, 0xbcbe0963bcdabaebU,
  0xbb115befbb7602b8U, 0xbac30a793a069386U, 0xbc337a943c2d99f0U, 0xbcaa1485bcc52704U,
  0x3bbd2c74bc3c7064U, 0xbc15b4d7bb42d03aU, 0xbc85becabbd47569U, 0x3caa32cd3bfac118U,
  0x3c85f3983c616c3cU, 0xbba8f60b39e14024U, 0x3c34a2c639a76fc8U, 0x3c6a81373cb3a2f9U,
  0x3b0e9f25bc0a6f2fU, 0x3ae6cb3cbbc64e63U, 0xbc83e46b3b67de85U, 0x392781083cb66acbU,
  0x3c14fdeb3c8f7fc3U, 0x3b8d21e23a34ca5cU, 0xbaadc48d3b0abf06U, 0x3c261b853c8edd32U,
  0xbce83285bbff65e0U, 0xbc3406efbc43efd7U, 0x3c68f1163b3b3e48U, 0xbc8caaf8bc2f4631U,
  0x3beede6cbbea2a1aU, 0x3c4bd36f3bde4a90U, 0x3c652b423c497f5cU, 0x3cc72bd03be0b9baU,
  0x3b8a5ea23cac417fU, 0x3c65a80b3c8c255dU, 0x3d0c29083a75047dU, 0x3c83b0b73cd8cc4aU,
  0xbc3ed98c3c208676U, 0xbc656539bca66553U, 0xbbfcf303bcc4ef5cU, 0x3cfe4d633b05d2b8U,
  0xbbedc7c63ced0031U, 0xbc6ff36a3bc6fdf1U, 0x3c1575123b308b19U, 0x3ca349833c0cb49cU,
  0xbef739cbbf9a2454U, 0x3f6c8f283f5663d7U, 0xbf2f6d8d3fa56835U, 0xbe0ce1b43f8bd26fU,
  0xbfb101fb3f1ec975U, 0xbf81ab513fe23246U, 0x3fa89f74be749c48U, 0xbe50ef9ebf1a7d64U,
  0xbdc00e7d3d626bffU, 0x3e732bffbdd7cfe0U, 0x3e4788bbbee1442cU, 0xbe578d0a3d216dc8U,
  0xbe82bbfbbe3db05dU, 0x3d9d99e1bec2f53fU, 0xbe1acef63e7ea68dU, 0xbcfafbc53e8b7a68U,
  0xbd2003f6bece67fcU, 0xbdc62ce4be5f85e2U, 0x3df71263be3fed11U, 0x3ea277f2be7a7b0cU,
  0x3e8038c2bee689ccU, 0xbeb222fe3e82c1c9U, 0x3eab8ac43ebc12d3U, 0x3e9341d33e93be70U,
  0x3e0b5896bee5e9fcU, 0xbe64ff6b3e0a38d3U, 0xbeebdbcb3effbfa8U, 0xbeb2ff3c3db974e8U,
  0xbea0c5493eecfedcU, 0x3dfb9b093ea77b73U, 0x3eca2bc23d7adaeeU, 0xbe89701c3d225d79U,
  0x3e3177cfbd43283aU, 0x3e70ca7b3e3140f0U, 0x3e2676593b77e9e0U, 0xbdc176aabbc2039fU,
  0x3d39c7eebdaeced0U, 0x3e651fbdbdfbf4d1U, 0x3d9ca73ebdb8c28cU, 0x3e248180bd3705e0U,
  0x3dc142ea3dc4ce7dU, 0x3dbecaa83e89a6e0U, 0x3c65a7603d463a2cU, 0x3e3d66f3bdb4ffb3U,
  0x3e555bff3e06d8e9U, 0x3e4896a4bd6148e9U, 0x3d12c26d3e9fec6cU, 0xbe30b64f3d73f3eaU,
  0xbe29fb9b3cb4e849U, 0x3d99d687bda52c73U, 0x3c3daaa33e91ccd0U, 0x3e54d3e23e8087e6U,
  0x3e83429d3e18a6ccU, 0x3db9ed073e13b859U, 0xbdcb26a8bda81304U, 0x3e8f0a283c876d38U,
  0x3e1fc363be522c9bU, 0x3ede29c03dff7a12U, 0xbe613ca4be5ddfaaU, 0x3eccdbe6be747288U,
  0xbd9d53073d10ee1fU, 0x3d7896d83ec6ee2dU, 0xbecd13dcbe82c67fU, 0x3f11805c3e1ae5c5U,
  0xbe82969a3e6e6911U, 0xbbbd7a16befb08a8U, 0x3d184af8be9d9d41U, 0xbe33cf1abd9126d5U,
  0x3e7e6f873c991f0fU, 0xbe8b1d383ee5ce45U, 0xbed712dabd9236ceU, 0x3ec24e65be43942fU,
  0x3de1dcff3d856041U, 0xbcfeb010be4abf72U, 0xbe6e721c3d9636a3U, 0xbed3ed6bbe1968f0U,
  0x3e22572d3ea35e93U, 0xbeb83b763e0f579aU, 0x3dd60c2abe437559U, 0xbe67c946bdd1452bU,
  0x3e3a74c5be0c35bbU, 0x3e5eeb5abe5fd9acU, 0x3eaeb4d3be22c11cU, 0xbe439e52bdf48cb6U,
  0x3dbc8737bd6ca838U, 0x3d2cce9bbe62da81U, 0xbe15efff3dc0e5eaU, 0xbe1a6ca83dfbb69eU,
  0x3e11a06a3ebaaa53U, 0xbde6c0ecbdcabab0U, 0x3ef8ecba3e01f001U, 0xbe0394583e146b9eU,
  0x3e6d7ed1bdd513b7U, 0x3e99a28a3e5c83c0U, 0x3e75c14bbe140019U, 0x3dd1c1ff3e569ef4U,
  0x3cee44863eb1028dU, 0xbebb7bd9bd809ee0U, 0xbd2088ce3e690be1U, 0xbe9b1101bd23fbb2U,
  0x3d0ff3d5beba01b9U, 0x3e6362f73a0d8bc6U, 0x3ea87cdbbc5e22a8U, 0x3e24189abe9282efU,
  0xbdbb68473e7b43ebU, 0xbe86a106bf152a64U, 0x3e855860bebb833cU, 0xbeaffe963e9b1b46U,
  0x3e08c86b3e200db1U, 0x3dd4cfb2bd209a88U, 0xbd58a51cbe1435c8U, 0x3e92d528be92726cU,
  0xbec0c89dbd5b70cbU, 0xbec0e4c0bc964b5aU, 0xbea12b7b3e834cb0U, 0xbda15c06be2e39fcU,
  0x3d449da63ab38570U, 0x3e94da393ec82488U, 0x3f07a982be9cbea9U, 0x3f1e60dabdccc303U,
  0xbef44f3cbf0dec3bU, 0xbe39380d3ef457b6U, 0xbe97d31dbd87c57bU, 0xbe96a7d9bec272d5U,
  0xbd1ab793be321bb5U, 0xbc6a22adbeb08abfU, 0xbdacc3883dbfd43eU, 0xbf35e0c23e95cd7fU,
  0xbe66e8ff3e633eadU, 0xbe957f90be75bf78U, 0xbe0fabf43e8a2992U, 0x3e004e96bf01ce65U,
  0xbdbe418a3e964d41U, 0x3ded49cbbe500b6bU, 0xbe67321b3e3d41c8U, 0xbe616dc8bd7a6513U,
  0xbe266a613e32196aU, 0xbf3a33ef3cebc741U, 0xbe074e983ed4f1fcU, 0x3d1ba2ff3e9e9243U,
  0xbe0f9d32bebf72f7U, 0x3e83e99fbed12be7U, 0x3d30e211bde241bbU, 0xbe4c8fd33f10eab3U,
  0xbd805f803e796851U, 0xbd25fdb0bd2c1198U, 0xbf0b371bbcfc6f4eU, 0xbd22ee973f14dc7fU,
  0xbd6a95dbbe47eeacU, 0xbe7278af3ef1e97aU, 0x3e750d9bbe955aefU, 0x3e6e37143d5fbc2aU,
  0xbdbd5f0d3d4cd8cdU, 0xbe2e1d793e635b6eU, 0x3e2623f3be00eaefU, 0x3c23e3743c08ca7fU,
  0xbe95b5c53ea5752cU, 0xbd839806be4d67d9U, 0xbc3b2d68bdaa3383U, 0x3dbdb90a3e434edeU,
  0xbeb0303cbd8ffe01U, 0x3d8f9c19bc914df8U, 0x3e500afd3da26f20U, 0xbda06cefbdb6fcf4U,
  0x3d8421743dd37b9bU, 0xbcdea809bdefb88dU, 0xbe3e2518bd03319fU, 0x3e59c9e83c2b93a9U,
  0xbb3922a9bd0badf4U, 0x3d2030933e973e73U, 0x3e01907e3d4c6a58U, 0xbe60862cbd0f223aU,
  0x3dad254dbc90fca0U, 0x3d640061be11ee99U, 0x3deaa08e3d4be827U, 0x3db63c5c3ebe8454U,
  0x3ed3f1143cecdcddU, 0xbed9b8f0beec0fbfU, 0xbcc81ee9be373b2eU, 0xbea174493eb59f64U,
  0x3e8f69d3be8b5d30U, 0x3ebf3684bd69600dU, 0xbdcfcb793e4eb611U, 0xbeaf893b3e62fe38U,
  0x3e8e3c6e3e178671U, 0x3e44623ebcd12f4fU, 0x3ed3e0bb3b934667U, 0xbec5f8b33ea6aa28U,
  0x3e9dc3b5be077eefU, 0xbe3cedd8bde6147aU, 0xbca9249b3d0db571U, 0xbda5b228be1bf9adU,
  0xbeac05473e5057c5U, 0x3e647891be9a20b9U, 0xbeb9bcb5beb02617U, 0xbdd406d43dd35e39U,
  0x3dbeced7beb01638U, 0x3e3e6a303ec8f44eU, 0xbe22fe93bd37a32fU, 0x3ee80c89be5dad9eU,
  0xbe08a36abd929ce5U, 0x3df13654beae744cU, 0x3e7043cbbeb5c59dU, 0xbdafd416bc46a0e0U,
  0xbe1437bfbe25fe05U, 0x3eb74ee93caac642U, 0xbeba42f4bec82920U, 0xbe8bdcc73e3c3b0bU,
  0xbddee0a9beae04f3U, 0xbddd9cda3e85f723U, 0xbee5c02d3e6778d1U, 0x3ed826bebee0835bU,
  0x3dfb9b403df1c376U, 0x3e993765bf05cf71U, 0xbed2a8033e5e9061U, 0x3e4001a83e585d4bU,
  0xbe339dc13d9685adU, 0x3e22ef42bf037dbaU, 0xbeda219ebd698283U, 0x3dcebbcb3e063b32U,
  0x3d9e4dfbbde8ac07U, 0x3ea594d93ea7b7a8U, 0x3ee1b003be5c621eU, 0x3e16c4f13cd459f7U,
  0x3e0abc91be80ff12U, 0xbcd9523f3dea34abU, 0xbe3eaa36bc5e0bf4U, 0xbe90fe82be0eaf3bU,
  0x3d5fa950bdd84dc6U, 0xbd05ed963c021f21U, 0x3df8965f3e3f02d8U, 0xbedf0cc03c37dd16U,
  0x3e0aae11be39265cU, 0xbdf2b48a3e46b96dU, 0xbdf255023e27f99aU, 0x3d2263cf3e373fe3U,
  0xbeb8c9e9bd150856U, 0x3e6ce0fa3e1cf355U, 0xbec053d0bdeb1db0U, 0xbe86991f3dd63b52U,
  0x3df14758be67dd5eU, 0xbd5010913e194ecaU, 0x3e7715c93d1b6653U, 0xbe9e6398be52fae8U,
  0xbe0f04563de16b8dU, 0xbe6227a93db45f63U, 0xbdb676943dc78a4fU, 0xbdd1e4073e9abcc5U,
  0xbe815dd03ca40bdeU, 0xbda99eafbedb4803U, 0xbc882b56bd2080a7U, 0xbdf900d03e7e865fU,
  0x3eaf80753e00d99fU, 0x3dcc010ebe675332U, 0x3dbe913e3d21f550U, 0x3e4fe9bbbda5228dU,
  0xbe1690153e029bd4U, 0xbcae8e86be49ae14U, 0x3ccc4e62bd93aefcU, 0xbe6e03443e0422c6U,
  0x3df84f553b060728U, 0x3cb83f85be8daa44U, 0xbda3414d3e2fc09eU, 0x3e0697483cfcfe8bU,
  0x3dd7f833bd7ee8f9U, 0xbdb632683d476ebfU, 0xbd221284bd08a022U, 0xbe143a8cbdc57743U,
  0x3e10b9333d36dcbdU, 0x3d643acabe9739c2U, 0x3e1b2ae53d1f1fc8U, 0x3ca76e353c98c527U,
  0xbe3d6e07be97f45eU, 0xbee73ee2bd996052U, 0xbe168f49be405b06U, 0x3e6c3fbabd5373c4U,
  0xbd77c061bd9cd36dU, 0xbe0407843e94bfeaU, 0xbb9339123d3cf3e1U, 0x3e80b1e6bd84127bU,
  0xbd3a6697be125d32U, 0xbe3fa29fbdade7a0U, 0x3e6285bc3ccb2e72U, 0x3eb164a53e85aaffU,
  0x3de4bae1bd8279ecU, 0x3e95cf5b3de871a5U, 0x3e9f84083e37eb01U, 0xbcbf59a5bd5e6246U,
  0x3e17a3bbbd87858cU, 0xbeb73bf83e4a60f6U, 0x3e6dfe033e13509bU, 0x3e8968713e59dd39U,
  0x3e88aa2fbdc99874U, 0x3ebb1d97bdf3d6edU, 0x3df186edbe0de291U, 0x3c6d92363e042b41U,
  0x3db98503beae330fU, 0x3ea9b4a1bd6ffd09U, 0x3e7498e13d9c4b29U, 0xbebcd0843f09ef6eU,
  0xbe8ad114bec2d31dU, 0xbe8453f6be9cded8U, 0x3e3293663cd6b8faU, 0xbe58f06c3da90788U,
  0xbe3f7e4dbe030f5cU, 0xbebe61dd3e644defU, 0x3ec33f8dbeac679dU, 0xbded4ee9bdceefc6U,
  0xbe8988d73d6a82b7U, 0xbdff90a5bd8cd3a4U, 0x3ea10d11be59f516U, 0xbe2a0bb2bdbfc948U,
  0xbe968fb83e7a6127U, 0xbbe676883e9daba6U, 0xbcef50663e288f40U, 0xbd1f2e96be956379U,
  0xbe1ed5eb3ea8b0e1U, 0xbe1bb26c3e2f9fccU, 0xbe93110ebcf3c353U, 0xbd599be7bc1d5964U,
  0xbf1521b8be232af2U, 0x3eb726793e7624fbU, 0x3e66736a3ee3ddedU, 0x3ec708e23e5c2411U,
  0xbd8675933e949504U, 0x3f05581abec68d3fU, 0xbe8219ad3f156db2U, 0x3e1ed5e0beb95f9aU,
  0xbe65d635bcd0c13dU, 0x3ec8c0aabd9fa83fU, 0xbee1eb863eab366fU, 0xbd3c55953f22ad90U,
  0xbe9808e43e439ecbU, 0x3dd2197dbea27b5eU, 0xbed7b18d3dc19bcaU, 0xbcc2f075bea4f739U,
  0x3dd0a8f9be2f87c3U, 0x3d407f33be7f4391U, 0x3e1b8f63bf368829U, 0xbedefbfb3edc9c49U,
  0x399c23f1bbcbfdb3U, 0x3d1e76233e8ddf03U, 0xbedd068fbd96bf9cU, 0x3f09afa63e8f2f2fU,
  0x3e25ee5cbc9839ddU, 0x3e4debc03dabf909U, 0x3d3edf5d3cce2937U, 0xbdba2f04bda087a8U,
  0x3ddf8f59bdd73e1fU, 0xbc7c80743d6694d5U, 0xbe8bace43de10440U, 0xbc225462bcba5f80U,
  0x3e14b8d73d9223f5U, 0xbd9438d03ba87621U, 0x3d9c538bbe0e99eaU, 0x3dfae6d2be0068f1U,
  0x3d969adabdee1093U, 0xbd0f0081bd4fc689U, 0xbe4acc4a3d84181cU, 0x3e0363df3e2b3efeU,
  0x3ced6d0bbda879f6U, 0x3d27a226bc55b379U, 0xb99a122b3d79b1f4U, 0x3e0f7672bc516955U,
  0xbdc3dfae3d5ddae8U, 0x3e30c008be6aa9b6U, 0xbdace72b3dc3a35eU, 0xbe1681773d273ed7U,
  0xbe2be9c9bafffa61U, 0xbf2f38bb3e3f0de9U, 0x3e83aad1be82e2efU, 0x3e5f6927bd1454dfU,
  0x3c2077453c47d4cdU, 0xbe24a6a7bd827640U, 0xbe9ee64ebe7ab0d9U, 0x3e995152be4fafd9U,
  0xbe443588be87d2e4U, 0xbe87b379bd69b449U, 0x3e181c00be0dcf9bU, 0x3e3d244cbd19c8e6U,
  0xbe389a60bd9823b1U, 0xbea3b53f3e77dbc4U, 0x3dc94bf03d41c1d1U, 0x3e051b73be837ce6U,
  0xbe8850053dae320aU, 0xbd754b353e38b08fU, 0xbce7f73fbda24e9cU, 0xbd8b83073f2cd5f9U,
  0x3e032d87be33fa54U, 0xbeaadeaabe1f974aU, 0xbda65ac63e8db364U, 0xbe12bc973e976a70U,
  0x3e705624bca421cbU, 0xbe1e2ee7be1544a8U, 0xbe92b5493d3530d4U, 0xbe4096313e73b5eaU,
  0xbe5bc713be3388cbU, 0xbe8d19fdbeb3ad32U, 0x3df6c2a73cb41de7U, 0xbeedac493bb74e39U,
  0xbe28fadabed513fcU, 0xbe9627f2be2cfb30U, 0xbe205ba83ea71c85U, 0xbe98eee3be3ef0d2U,
  0xbd056078bec99b74U, 0x3d73377cbecfe193U, 0xbe068ab5bd80e43bU, 0x3dd3a882bc897fa7U,
  0x3e65670ebc7c93eeU, 0x3e5071cbbdad1b2bU, 0x3de296aabd050f16U, 0x3cd69f99be829615U,
  0xbcaf957b3dd7ccc5U, 0xbd49d5d63e4300bfU, 0x3d87a33bbd73c7deU, 0x3ec751f4be4a346eU,
  0xbd9dec01bc212630U, 0x3e19a642be780d48U, 0xbe1b7303be9d6222U, 0xbd4884893c505770U,
  0xbe027d643cd7c11aU, 0x3cc0863d3c5e3b2eU, 0xbe2ecb513cf6a18dU, 0x3cab301c3f060237U,
  0x3e9e37e0bd16bd40U, 0x3f81fc063ddb81e6U, 0x3e2a0bed3e734314U, 0xbe064afebe270443U,
  0x3e073e66be3b3b05U, 0x3e61dc193e0da99bU, 0x3e59697e3d28af29U, 0x3df1cc433ea97ae2U,
  0xbceda0883dd72f57U, 0x3ed26b9dbe636879U, 0xbe08f69e3dc4a3f3U, 0xbee01082bea2bf6cU,
  0xbe5df9513e6fea98U, 0xbd82adcc3d8be833U, 0x3d1f2078becf3be5U, 0x3eaf19ff3e3d7957U,
  0x3ec4397b3f08d620U, 0xbf077bd33e886b45U, 0xbde43794bf98d550U, 0x3e8df3b1bebc2ad0U,
  0xbe8e480b3eafab9dU, 0x3ed29196bdfb2671U, 0xbf2e04163d939bd1U, 0xbdfb037d3daff947U,
  0xbde48b90bec534d1U, 0x3e865ed6be91d17dU, 0x3d36fb243d756773U, 0xbf12f01c3ec26604U,
  0xbe8c7220bf070541U, 0x3ec47b583efcf287U, 0x3f09d2c33da1348cU, 0x3eb491ad3d04516cU,
  0xbd9f4724bcdb8563U, 0x3f38ff533df417a1U, 0xbf027cbf3f65631dU, 0x3ddb66933eddeb46U,
  0xbee1f404bcdd8636U, 0xbeaa2b23beeb6922U, 0x3e00606bbda04a60U, 0xbe5fddfd3e9fa6d2U,
  0xbe87a25ebdc44ebfU, 0x3f1f4d4fbd6af947U, 0xbe84a35a3e7ee6dcU, 0xbed9b2323f3b6affU,
  0xbf329184bc692ac7U, 0xbe53e3193ecf53c7U, 0x3dcc8201bd776654U, 0xbf18c2b8bed5b71aU,
  0xbe3a26a53da019b3U, 0xbede7a52bdf0f47fU, 0xbedd4464bd4c94b8U, 0x3d107e8fbd5576b1U,
  0xbeb8063fbef65413U, 0x3ecee7d23ea8e482U, 0xbc17af893eacc375U, 0x3e2ce4c63e16040cU,
  0xbe5119053f13664dU, 0xbf1ec51e3d29a3f5U, 0x3ed43232be787af2U, 0x3f1ea4df3e250e90U,
  0x3ed753b83ef80defU, 0xbece56a6bf299408U, 0xbec3fe32be169caeU, 0xbe9eecb63ed24dfdU,
  0xbe1eefbbbd041650U, 0x3e754827be610f1cU, 0xbe513fe93e9435c7U, 0xbe178229bdf9ddc3U,
  0x3e86edb8bd7c59f8U, 0x3dedef2d3e006202U, 0xbe54ef7b3cc1f897U, 0x3d5589f1bca38f3cU,
  0x3e3441df3e30c7b5U, 0x3cdfe2453e8df790U, 0xbea4e2ebbdfc550eU, 0xbe5fe16cbc869436U,
  0xbe46ed143e59b369U, 0xbd8bdca93e6e8e20U, 0xbe3abdaf3d3d6c1eU, 0xbe2b9cdcbe48b1b8U,
  0x3c899ddc3e2f26e6U, 0x3e24e505be3ac495U, 0xbe0c1c45be620923U, 0xbd35fb0a3d39a555U,
  0xbec23cee3e36186fU, 0xbe95df593ddfd178U, 0xbe9bff3a3e879acbU, 0xbe78ddbf3c9e4821U,
  0xbe4f9e3dbe8ce829U, 0xbe8f2edebef14d84U, 0xbf0146e8bbf54cc8U, 0x3e9ef3e1be81678fU,
  0x3e9b5ac73e414596U, 0x3c54b964bee68690U, 0xbe91f2ecbcea4598U, 0xbef33e48bec10100U,
  0xbe850c4ebeaa8988U, 0x3d9430f93e977284U, 0x3d7e2ce6bef675aaU, 0xbd065769bdd548afU,
  0x3e8506b43ebcbc75U, 0x3e6d54a13ed2109aU, 0xbd6d56133df1f517U, 0xbddcbd88bd987669U,
  0xbc488079be13cac1U, 0x3c9dbb0b3f0ca9c1U, 0xbe23972d3ecde84dU, 0x3da52d183ee9d637U,
  0xbdc7743c3dde2707U, 0xbdb8460f3e14b230U, 0x3f0cc2d9bdf47fefU, 0x3d521ca2be1a5b4fU,
  0xbe2c1d2fbdb2627bU, 0xbe931351bea095bfU, 0xbe2cd3edbea57b37U, 0x3e814dbd3daf57d7U,
  0x3e35eff3be803b33U, 0xbe589edebe872218U, 0xbf11a4d2bcb9efc7U, 0x3ea4203dbe9ea2c6U,
  0xbe1e2c1b3df49686U, 0x3e7cfe3f3e6f41d5U, 0xbe0e3b8e3eac4ffcU, 0xbe2d1f8f3b9deb85U,
  0xbe834b97be4cc34dU, 0xbca035b53e53899cU, 0xbdfac9d73d9c23aaU, 0xbe03e43f3e6cf91cU,
  0xbd16cd613da901c8U, 0x3dba3fe73dbd5c91U, 0xbe620bbf3edd094aU, 0xbe792d6c3dfac81cU,
  0x3c1926d13e84961aU, 0xbe901cec3c2e0298U, 0x3d6333e0be00a2fbU, 0xbdf5e664be52105aU,
  0x3d9835cc3ce241d5U, 0x3c76c1aebcb65d13U, 0xbd8a5bff3e28b400U, 0xbe7a5a1d3ec0552cU,
  0x3e0db867bdc9dc9aU, 0x3c8982843e954c6eU, 0x3ef72f08bdfe974dU, 0xbca5845e3e33d8daU,
  0x3dc8c870bd5af9fcU, 0x3e221ea73e3cbae9U, 0x3e0de8683e5f5142U, 0x3ef305283e52ee04U,
  0x3e718aa73f194147U, 0xbd93220a3e912d20U, 0xbdc877f6be1fc54dU, 0x3ebf4453be894e3fU,
  0xbdf10634bea394e6U, 0xbead7ab63cb42897U, 0xbb87e8b3be32b54bU, 0x3ebf66cdbe9f7ce3U,
  0x3e9f3b883ea9aa40U, 0xbea65f66beaf2ea6U, 0x3e1556edbda2feffU, 0xbd9c668bbd17f20aU,
  0xbfda64873d2d5a76U, 0xbf55d9393ef4c5bfU, 0x3efbde043fa3c72dU, 0x3e755352be2cd3f0U,
  0x3f0b1b4f3f1ad2cbU, 0xbf4dbff63ed47fafU, 0xbf109c7e3f3cfa3cU, 0x3f7246c3bb426380U,
  0xbf8374103fc460fdU, 0x3f1ca4473e0a3843U, 0x3f1691563f2999e9U, 0xbfa495443f654312U,
  0xbc98112abd603ab8U, 0xbdda06983db627e3U, 0xbd32959abe97c269U, 0x3d39b3febe85d116U,
  0x3cf9b51fbe9a7fb7U, 0xbeba05c4bea04dcaU, 0x3dd6baa7be0b70d4U, 0x3d4ac0efbe6eb322U,
  0xbe3faf0abe9895d5U, 0x3dd966c23d87d73bU, 0x3e1b61863e549550U, 0x3e6a5bb0bded69c5U,
  0xbea4c82b3da976acU, 0x3dd00054bd612d99U, 0xbe2661d73e89c17cU, 0x3e86c3653d38ab42U,
  0xbdbb53b7bd9e7e41U, 0x3db732edbe8a2d6fU, 0xbe2a0f1e3ec1f687U, 0x3e5a6ddd3d9d245dU,
  0x3d98d2e43d321568U, 0x3ec11b133e59db6eU, 0x3e177fd0be00f30dU, 0xbe00e77fbd4a6d48U,
  0xbe61a6ad3ca21e0fU, 0xbdbdc45dbc90976cU, 0x3e42075f3dda3348U, 0xbe82e88f3de2e904U,
  0x3cc628ce3e8562a0U, 0xbdf467d53db3708bU, 0xbe6963c43e0c8a9dU, 0xbe7a4dc03d780821U,
  0xbe87f8a2be0996e8U, 0xbd3cec76bcaaf937U, 0xbe9925debe74573dU, 0x3c52af23bc97d79cU,
  0xbe0ec5cabe5917fcU, 0x3dc12a83be8e147eU, 0x3dcb82993e0ffa2cU, 0x3e1e793a3df94cdcU,
  0xbd282a0d3ec80629U, 0x3ea3487a3e573ee9U, 0xbf0ddd223e7daa1eU, 0x3dba7a123e797a7bU,
  0xbe7bff0cbcdc8a68U, 0x3eb89540bef09f3cU, 0xbe32691abf044c48U, 0xbe4da885be26f09dU,
  0x3bb5756e3e01994bU, 0x3d860fda3e4451c6U, 0xbde9749e3cce1078U, 0xbe43bcc43eedaa9bU,
  0x3e179cfe3ddd972fU, 0xbeb98d1fbe321cc8U, 0x3dc465a73ead2011U, 0xbdf725ddbe2b45c4U,
  0x3d8b83bd3e73df19U, 0xbdb3b772be7897a5U, 0x3eadd7ff3e33eec3U, 0xbd7d1d803e3da5bcU,
  0xbe7dd5ff3e0847e5U, 0xbdd1ec4cba781f9eU, 0xbc783f063eb70d7aU, 0x3e72a84b3ebaaba2U,
  0x3dcb141bbecffc2fU, 0xbf01faec3e1e93c9U, 0x3ed75006bec0ca53U, 0xbe8232e7be0ecdfaU,
  0x3da213b5be872a48U, 0xbee08012bdad8babU, 0x3f0ef6223f1d38b0U, 0x3edd1e823eeb2c50U,
  0x3e1fcdb83e229c71U, 0x3db9b016be34d9d5U, 0x3dc3b22a3dd37738U, 0x3dd116d03d6a6fdcU,
  0x3cd687bd3e363341U, 0xbcad29103daa12d7U, 0x3d6b82673e78b17cU, 0xbe0b2f94bcac76aeU,
  0x3e42cba23b4da5b8U, 0x3d474f343e37ba10U, 0xbecb0ee33dda4661U, 0x3d39a9123d00946eU,
  0xbd7f89f13e83972bU, 0xbcb9aababe97c17bU, 0x3e317b2fbcf3f296U, 0xbe82d9c2bdb370d8U,
  0x3d8b74b73e5abfbaU, 0xbe086f243dcfdcacU, 0xbdef26fe3e4612fdU, 0xbe4dfba23e86e7f3U,
  0xbd4ba71a3c368072U, 0x3da8ff3dbd57f72eU, 0xbe4f872ebe6148ccU, 0x3e0181943d84a13bU,
  0xbe129b3a3de3042cU, 0xbe199db33ca381adU, 0x3dbf098ebd76f5f2U, 0xbeb23f7ebd72eafdU,
  0xbc717da03e31c0caU, 0xbe410f82be341e75U, 0x3ddf6a833e01b5ffU, 0xbd7f57a0bdfd29c2U,
  0x3d89652d3e65bfa5U, 0x3da52ae2be0f5181U, 0xbe2948f8be995e73U, 0xbd082c2bbdc0e887U,
  0x3cd51c3a3d54e958U, 0xbd8cb7c7bd46f971U, 0x3e9aa7ae3df1629bU, 0x3e810a033dab3699U,
  0xbd7954a03e944404U, 0xbdd4c129bcfbc0f9U, 0x3d8b76553d295b55U, 0xbe3cfa8bbb7062eeU,
  0xbe14c0f33ec8f8c9U, 0xbdefe89dbda17229U, 0xbd3633a5bd7ee1d5U, 0xbd288ce23ea31444U,
  0xbe31bdf93d6d059bU, 0xbd9948d6bd8221ffU, 0x3df462073e5972e1U, 0x3cd3d8abbdeb510dU,
  0x3e2011223d9b24bdU, 0x3d902faa3dc3f3feU, 0xbd8ffac0bd075dcdU, 0xbe112f4fbda1b92cU,
  0x3de0d56d3dd3d7f1U, 0xbe3b500d3d847f83U, 0x3e73a70dbdd45e0eU, 0x3d80bbb13e179546U,
  0xbe4e68843ec518b2U, 0x3d9054edbeb8c040U, 0xbdbfbbd3bdfb142eU, 0xbce66ba9bda4086aU,
  0x3e0e0810be69e2ddU, 0xbde67e70be149c92U, 0xbe735212bdf8f7caU, 0xbe84b0b8be485542U,
  0x3dbf3d7fbe80ef87U, 0xbe2a94d13de214e8U, 0x3c92533a3e6ac2fdU, 0x3e71e02e3dc02b11U,
  0xbe40852b3df136d8U, 0xbdede8aebdbbec44U, 0x3e1dc2b23d3ad7ffU, 0xbdb182f6bd246afbU,
  0x3cfa11103d9a9213U, 0xbdf147533df3d9d4U, 0xbdc4f82cbdd78520U, 0xbe1b78773c7a6e86U,
  0x3d2f1bbb3dc74852U, 0x3e40d28dbe5d17d3U, 0x3db94f363e768693U, 0xbe1ecfa33b41c419U,
  0x3d984396bd888fd8U, 0xbd9df35e3cbc958fU, 0xbe1ba5dc3d8376b6U, 0xbe34560f3d697517U,
  0x3d46bc5e3b1b2b20U, 0xbd57706d3e4033c7U, 0xbc691e373d67bf55U, 0xbab0bf593c9a1c31U,
  0xbc8a38313dacaf50U, 0x3da9cea4bed40d1cU, 0x3cc9d914bdb67a75U, 0xbe0a8c2bbe021abfU,
  0x3d019555bce129f6U, 0xbe3778f4bdcc1552U, 0x3d43e4c73d7fff21U, 0xbd692c053caab1ecU,
  0xbe0082373e05285cU, 0x3d69ea073dcf8b63U, 0xbe16fdde3cafc7acU, 0xbe4ee46bbe014c5aU,
  0xbd8aabc53df41af5U, 0x3d331a83bf0be399U, 0x3e4c77d63ce841bcU, 0xbc77921ebeac2142U,
  0x3bc806d93e57ccc4U, 0xbdc18427be007a99U, 0xbd976320be3b2e62U, 0x3de42123be3f2fe2U,
  0x3ebc87463e01d30fU, 0xbc570f393c585fb3U, 0x3dea69fabc5cd2d9U, 0xbe3bcc5dbe5cd51bU,
  0xbe1a76243e00eb47U, 0x3e4db307bcae9651U, 0x3db6e1a53dcefff2U, 0xbe7652aa3d18a702U,
  0x3dccd9db3e395ba1U, 0xbdef5d943d4f73d6U, 0xbd525d623e102263U, 0x3cef44723e037b4dU,
  0x3d11020cbd1c990eU, 0x3e01f33bbe2d8beeU, 0x3e5631b83d4b450cU, 0xbdb2cb4bbd301dc0U,
  0x3eb20bb6bda69cf9U, 0xbeac79933e1601c1U, 0x3dee449bbe2cd56bU, 0xbd0882dcbd6edd56U,
  0x3e9b9d443e99a0c5U, 0x3b59e0dfbe126ccaU, 0xbdfd55b03ec274a1U, 0xbd9cd44b3e24e7d7U,
  0xbd816e74be42479aU, 0x3da4b76ebc519c00U, 0xbd1f601c3d9cd7e3U, 0x3cded0ec3cc0a1f3U,
  0x3d3db2bcbe924769U, 0x3cc1bd6f3f028d86U, 0xbc8bb962bdc77ca3U, 0xbcdae0ed3e9a4817U,
  0xbdec97f6be65f8bbU, 0x3e37b469be13b5dfU, 0xbdd17fa13e504fbdU, 0x3dd7495dbe0c924eU,
  0xbe9a62053e095f0eU, 0x3ce2ab32bd267d7cU, 0x3e496fd2bd8fb1fdU, 0x3e7cfcfebd8808cfU,
  0x3c9ccd103dbdc4a7U, 0xbd24348bbd841e27U, 0x3df50b4a3e0720e6U, 0x3ce28147be4eb8c6U,
  0x3d738d5e3d802325U, 0x3ce212913d4532a0U, 0xbc7c113c3e34b76eU, 0x3e01469a3e4dda3fU,
  0xbd9e64713d89869eU, 0x3e09dc10bd2fe8c8U, 0xbe4870b83e76f284U, 0x3e5dc61b3d93d7f1U,
  0x3d719f9cbe8b2c46U, 0xbe61bdb9be9a140eU, 0xbe9cd393bb647eb4U, 0x3dc2faac3dcd906eU,
  0x3e6697e73ea163a4U, 0x3e78d44a3cbfbb91U, 0x3e2afd523e656995U, 0x3e273d59bde341d8U,
  0x3d3c07333e983bceU, 0x3cae0c3ebe39e86dU, 0xbd27d87b3e887949U, 0x3e446ed93dc886baU,
  0xbdbc3ee3bd90525cU, 0xbe5e15eabd04d692U, 0xbe26d9c73e052a02U, 0x3e1bb136bc91ef3aU,
  0x3c94170dbe072b51U, 0xbe25b4ffbbed71b5U, 0xbe589a29be3dbbe1U, 0x3cef0654bdda0ef4U,
  0x3d8041f43e75602dU, 0xbe0330583c2980afU, 0x3e39142c3dfaad7cU, 0xbe5430fd3e5179ccU,
  0x3c0608d83e36d1ceU, 0xbd7d3146bd97b6c9U, 0xbe884507be6d98fdU, 0x3de9d961be9c2a69U,
  0xbd66016ebd3d2bf1U, 0x3d8d06eebc475d03U, 0x3cd110ec3da747a0U, 0x3d60c0e2bbd03538U,
  0xbd8f4e6f3e74d065U, 0x3d79b03e3e31c434U, 0x3c503d27bd8bf1c8U, 0xbc97d435be37ea25U,
  0xbe235f45bd9f2a2fU, 0x3dae679abdb3aac6U, 0xbd1f7c17bda44402U, 0x3c9292d23d519ab3U,
  0x3e7db910be28ab2fU, 0x3e6d9d973e0195a4U, 0x3e43ec7fbe5d97a3U, 0x3e99816c3df1183bU,
  0xbcc958dfbe7c1932U, 0x3df716a6bc9f5233U, 0x3dfe9e49bdbddc7dU, 0x3c9772893db4f788U,
  0xbe1a1fcc3c13d74bU, 0x3da803aebd0d1154U, 0x3e64b10a3e0897d2U, 0xbe2762053ca70079U,
  0x3da1f0f13c190928U, 0xbe01f9c7be949d38U, 0xbd0967c2bc8fed7bU, 0x3e334216be944e49U,
  0x3cad7e15be12629dU, 0xbc7532ecbdfbc110U, 0x3e9d42e1bb5bc858U, 0x3dbff507bdbafa25U,
  0x3e5920133d507064U, 0x3e18ce22bd925286U, 0xbe0e5469bdc9a8a2U, 0xbd40314ebc86b8aaU,
  0xbdaa9fdabe37273aU, 0xbcda3e303e08801dU, 0xbe60ef14bda792ddU, 0xbda5170bbd16c3a9U,
  0xbc639cce3cc7c507U, 0xbdb179fabdda0f2cU, 0x3dfca0933dd201ccU, 0xbdfcd37ebcf9a23eU,
  0xbd2d5af63bdce76bU, 0xbd9fd9babe2c350aU, 0xbe30b4e93ea768e3U, 0x3d473a053e59be77U,
  0xbe3ab0133df7ef62U, 0x3e0b82b33e859178U, 0xbe5d5a33bc604635U, 0xbcde98dfbe91baf1U,
  0x3e82edce3c9a5d7dU, 0xbe1a65f0bd7ff722U, 0x3d7a62d03dee83ebU, 0xbcb58b733d621f10U,
  0x3de91476bd5ee3adU, 0x3dc96730be7d599eU, 0xbe358d9c3e6b8ba0U, 0xbbccdf36be483130U,
  0xbd0dde81bd786e11U, 0xbdecdcf83e12438cU, 0x3e47f66dbcc481a1U, 0x3ca58f0fbd8a9371U,
  0x3d675e353cfb7c79U, 0x3d88b4dcbe03ce6dU, 0x3e083240bdff724bU, 0x3db4cf9a3cf3f4f6U,
  0xbda66fb93e915ecdU, 0xbe3035a8bdc4f371U, 0xbd893888bdfbb797U, 0xbd75d23b3ddd5626U,
  0xbdb2b9d03d92aac2U, 0x3aa861243e105acdU, 0xbdd0bf123dba5ffaU, 0x3dcc63c23db6ef87U,
  0xbe2c7219bdd0bf9aU, 0x3e1eceb6bd805c34U, 0xbda1f8c6be5041bfU, 0xbdec81acbe03a0f0U,
  0xbd4428b73daf771eU, 0xbe5ae50a3e60a7acU, 0x3cf8164f3d1fb240U, 0xbe10a6bb3e8d95b2U,
  0xbe02f13e3df864f3U, 0x3dce78b43e0e65a4U, 0xbe28af1e3e4e9bc4U, 0xbd65d7b9be45e4ddU,
  0x3cc1c36cbeacbd78U, 0xbbb3f54b3d9e88f1U, 0x3d9c4df83c9c97d6U, 0x3d3252bfbe2fdea8U,
  0x3e3fa9a33d48fcc3U, 0x3def1f4d3d872380U, 0x3e3c8aab3d39d6b0U, 0x3d75035e3df4bb64U,
  0x3e90888fbde66ce2U, 0xbe4b45b13e201eb0U, 0xbe1ca15b3e0085f9U, 0x3cd8d343be755b53U,
  0x3e023c263e8611ceU, 0xbc76f9d9bdb7a807U, 0xbe93b8fbbca1f977U, 0xbeb415db3cbcc53cU,
  0x3e4f1a403e9420afU, 0xbd7fd2f63d4043a6U, 0x3ce818c8bbd4bf9aU, 0x3ca3e0613e3a13d9U,
  0x3de9f88fbe47d60cU, 0x3e7a268f3e2f2f3dU, 0xbe4ba45d3e5a43ceU, 0x3e22bba13accd7daU,
  0x3cd258b83e2a148dU, 0x3dcd27003e839633U, 0xbe18a60abd65ef9fU, 0x3e195fcdbdf9bda4U,
  0x3e7d359e3daa033eU, 0x3d9ffe673d5d8803U, 0xbd91905d3db913ffU, 0x3da8d1b03dc40a4dU,
  0x3e5f02e6bdd68755U, 0x3e8ab7c83e4c07c9U, 0x3e1714a73e0a96f7U, 0xbcee0f283e6c298fU,
  0x3dda555d3d9799d9U, 0x3d1006b13e484296U, 0xbd02e25f3e6b3efeU, 0x3c4055cc3d6330ebU,
  0xbed880c03c04d1e8U, 0x3dc0ee41bd990a4cU, 0x3e242c08be92f5b8U, 0xbe080953bde782e0U,
  0xbe14e0d23d9c282fU, 0x3d9af8843d832f0eU, 0x3dde3fbabdc80d8dU, 0x3e3c7c02bd81a7b0U,
  0xbd1f5ad13e7b0e89U, 0x3c786c053d9c4cbdU, 0xbe328e903db3b77fU, 0xbd8e18c03e7cbd23U,
  0x3dd20277be1bc7d5U, 0xbebcfd90bd77fdafU, 0x3e8509433ddb92d7U, 0xbe847ac1bb7f3817U,
  0xbc87beac3e3e0421U, 0xbe0d4eb83e31cfd0U, 0x3e3284f8bbb26f48U, 0xbdbe5bb73e274aa2U,
  0xbe947eb53c162e58U, 0xbe295e733e6ca9baU, 0xbe4a82ecbea17c57U, 0x3dc18bb93e3f104bU,
  0xbe23fd28be0a7951U, 0xbe1f1fc2be2b6697U, 0x3e81d6db3d8cdee4U, 0xbecfb4b0bd0eb58dU,
  0x3d84abe33ba806cfU, 0xbd4dcc563d4d3120U, 0x3c62c2bf3e62c9c6U, 0x3dd55e90be42f4a3U,
  0x3e224e9fbe74ce78U, 0x3d163c1b3e8bd7e2U, 0xbe1ad487be79a734U, 0x3e1e0dc9bcd00688U,
  0xbdb191ef3d9d08edU, 0xbbaecfa1be208007U, 0xbe2ea6a73dda9d30U, 0xbe9556283e388689U,
  0xbd7ed6f2be8acc74U, 0x3dd189463e118c7fU, 0x3d1d3e373de1ce13U, 0x3c65b59cbcb65035U,
  0xbcbc719a3dc196c0U, 0x3d9a14853c16e3caU, 0xbdf9704dbe897452U, 0xbd2126563e228437U,
  0x3d286c983e309bdcU, 0xbe9024d43e27a14eU, 0x3e09bb6bbbc33615U, 0xbdbc6c54bd2eb737U,
  0xbe22a18ebdc35588U, 0x3da955b3bc6c2a4cU, 0x3d4f79bd3e010553U, 0xbdd2471d3db88c0fU,
  0x3d8e49123d93d05cU, 0x3e151e96bdd625deU, 0xbeba6c0dbd99bad8U, 0x3df731c23e0ca299U,
  0x3ea8ff043e6dd6a8U, 0xbe9ab5ae3e84557cU, 0x3d3b411dbd9bea6aU, 0xbeb2be2c3df82f8dU,
  0x3e4490e9bae60e7fU, 0xbe08eb51bd76d1b1U, 0xbeb2b2f0be36df33U, 0xbe05dc4e3a52a86bU,
  0xbdc7b0c73cc78a7aU, 0x3e31d93dbd755e8cU, 0xbdb459573ddc78ffU, 0xbe833451bddb6b3fU,
  0x3dd643b33d9ea356U, 0xbe645b6b3e269580U, 0xbe5a3595be013b4aU, 0xbbdf45683c1e61e7U,
  0x3d51bf46bccf46f1U, 0x3c7f66303dc7c121U, 0x3a34f153be99da4aU, 0xbe1c233fbda6c0e7U,
  0xbe1a21e93e02eebdU, 0x3d0c1638bdede66aU, 0x3e16b423bea97330U, 0xbd8d494d3d886ce3U,
  0x3e19cfff3da63993U, 0x3e3800883cddd7ffU, 0xbdc2a6bcbe012722U, 0x3c95ea913df95ecfU,
  0x3d972d12bdd6a7feU, 0x3e67bbd03e000076U, 0x3d1807ed3e707b50U, 0xbe59efa13e2e56b4U,
  0xbd4f7a923ca704acU, 0x3c4ee6253cc48ad2U, 0x3d84e4243dd8194cU, 0x3c345dca3cc3039cU,
  0xbd564ea33c95ecd5U, 0xbd1dfc7cbcbf94b7U, 0xbde0e77dbdac2070U, 0x3e2a5e18bdc534acU,
  0x3ccf555ebc863163U, 0x3e658780be77b82dU, 0xbc85fb48bece04f2U, 0x3dcaafec3d51766dU,
  0xbe5eba7ebe2900e6U, 0x3ae25247bdc45cd9U, 0x3c8b1bfd3d08ea60U, 0xbd831db53d2ea0eaU,
  0x3e195041bcbd82a0U, 0xbd329539bdcda4edU, 0xbe7c7cf5be1c64f2U, 0x3e0074f5beb8cb6fU,
  0x3ce9941d3e7c6e49U, 0x3d4e1fefbcefa2d6U, 0x3d663443beb34505U, 0x3d9a4debbeb1ff63U,
  0x3e828af8be0ea4e6U, 0xbd81cc83be1fe985U, 0xbd977a5cbef3c5c1U, 0xbe7ea8b5be25a1e4U,
  0x3ee0bd29bd19ffeeU, 0x3db0ca5b3de31585U, 0xbe66ed933e44025dU, 0x3e3d1a8e3eac73aaU,
  0xbe54fc02be632cd7U, 0x3deccf5a3da340e7U, 0x3eae775b3e75fc5dU, 0x3d7d0935be214e24U,
  0x3d3b1a293db08566U, 0x3d273874bd06aee2U, 0x3df4c835be3733abU, 0xbe4706a6bea38f09U,
  0xbdc65d93bdbb04dcU, 0x3e016a6fbe1d5b1bU, 0x3d2e0eeebe08cf04U, 0x3e12b20d3ee01d70U,
  0x3e4ebe1abe928866U, 0x3e07d957be07e435U, 0xbc441090beaaff22U, 0x3c2141dfbd0efdbcU,
  0xbd495fbabd960c3eU, 0x3df888c33e4d20d1U, 0x3dc6543b3e4dbf26U, 0xbd93f40dbe45023fU,
  0xbe5f40ad3dc26b3fU, 0x3d38e770beebfe1eU, 0x3dd05999be391a9eU, 0xbd9a924fbd36809fU,
  0xbe77e8c8bf04c578U, 0x3df0b6a03d3ea7a7U, 0xbe435a39bdd7559cU, 0x3cfece873e922809U,
  0x3d6400993f036180U, 0xbf24b5a8be2aad1fU, 0xbd65344d3dbd2ba8U, 0x3eb1d1b3ba806079U,
  0x3e4b192cbec2d5a2U, 0x3b6e38363d73c877U, 0xbd11fe243e8881b7U, 0x3d8995a83e72b9f3U,
  0x3e38c48cbe881221U, 0xbdfaa2de3dee1cd8U, 0xbe805d693d794d47U, 0xbed3ea44bd6c2b52U,
  0xbddaa5a4bda8be24U, 0xbefc50d2be33f6a4U, 0x3e0ca9863cc70dc4U, 0xbf0401e5be2d2656U,
  0x3dc8c264be1a5864U, 0xbe73afe33dc4c8d6U, 0x3e8387003df4535bU, 0xbefab8503f0a02efU,
  0xbda042f83e13f076U, 0x3e560874bf047438U, 0x3dd126003d9ff102U, 0xbd8d464bbe60a8deU,
  0xbe8fbb483d53ca64U, 0xbe880fe23eefbd95U, 0x3dac1f97be1c1b4bU, 0xbebd2e083e90f816U,
  0xbe9f52f23e51fd57U, 0x3ed09fa4bd4a10e9U, 0x3e8df4bebe96ed02U, 0x3dcfb9713e855b96U,
  0x3e0ce18c3dce65acU, 0x3df828373e450e36U, 0xbe14d5eabe744209U, 0x3ddf088b3e8c9a2fU,
  0xbe256d8cbe9be71cU, 0x3e8783473e822ba0U, 0xbeb6f9e43cd88e9aU, 0xbea00d40bcba3feeU,
  0xbe83d3643daeb02cU, 0x3d879919be668a09U, 0xbde3486f3e51ea12U, 0x3e28a3ddbd715aebU,
  0xbd0867eabde66e64U, 0xbe7593773e8c5590U, 0x3c6f9df23e9002bbU, 0xbe70f09c3dee714aU,
  0x3ef189dbbec06a0cU, 0xbe8984cd3e355e1fU, 0x3ddc6cec3eedd89aU, 0x3e8c67233e58f74dU,
  0x3c3376bfbea9b3edU, 0xbe18dc833dcf283cU, 0x3f077c3c3e954387U, 0xbb9b007c3e523a1dU,
  0x3cc7103ebef0eaaaU, 0x3e097e02beac1c5eU, 0x3e3073c23ddac11aU, 0xbcc855293e16ff36U,
  0x3e2f44b4beac0687U, 0x3df369f7bde669c4U, 0xbdc6ad54beeced25U, 0x3e11307ebdb7ea82U,
  0x3d516520be91f273U, 0xbdf656683ecfc9aeU, 0xbe9a1c61bd9de4eaU, 0x3ddb6edebe6eafa8U,
  0xbe27d459bd208934U, 0xbe8a053abdc1b1e5U, 0xbe485c333e042960U, 0xbdab93f7bce5f052U,
  0xbdc3d65dbd35b66aU, 0xbe45f2383deb144dU, 0x3dcadb553d154e84U, 0x3dcd3851be0c5fd9U,
  0x3e4db9afbdef2e21U, 0xbe6b445bbd60198aU, 0x3dd39a603ea1e267U, 0x3e6c30b03d1884d4U,
  0xbe471553bd0d3821U, 0xbe2588583ce2619eU, 0xbe2e7d7dbe084110U, 0xbc5d14e2bd2006dbU,
  0xbe31a39bbdd849b7U, 0x3c62749bbd5b554eU, 0xbe0de27ebe255ca2U, 0xbe0b2aa73a7bf6beU,
  0xbd92e17bbd164160U, 0x3c394cb1be50f0faU, 0xbd461b24ba84de14U, 0x3c711a76be262cb9U,
  0xbe6742933dade469U, 0x3d13c692be5b2cadU, 0xbe89f9833c9905b2U, 0x3d9273453e032856U,
  0xbca9d520bb9d3437U, 0xbe2d02d23da42841U, 0xbe0116f63db13aa4U, 0x3c743e54be3c808cU,
  0xbd33d05e3bd4ae8cU, 0xbe716d5abe255f24U, 0x3b9b71683d93db05U, 0x3e012362be9ff85bU,
  0x3d3cc720bd8648c4U, 0x3eaba2063d89d3b6U, 0xbe835d14bdfd4bd6U, 0x3d65e3a1bd703d49U,
  0x3d801776be476324U, 0xbc943512bd05f225U, 0x3e97b3453db31db3U, 0xbe4d2bccbea7a6d2U,
  0x3e9f21343e40ed99U, 0x3dea44e63d4f7aeeU, 0xbe16a1c93e7c57f3U, 0xbdc3aead3d4a5e1bU,
  0xbe1f028c3dc8592aU, 0x3e9eec24bda4a44cU, 0x3d4d4bf83db0d476U, 0x3c17db7d3c08167aU,
  0x3da7f2c9beb35341U, 0xbdf860a33dfbd526U, 0xbdb59c913e0ea09fU, 0xbd909c683e0c1f02U,
  0xbd41d5b0be3c4985U, 0x3e7e7187be148682U, 0xbe246de73d5f79adU, 0xbd5f4a4fbefcee41U,
  0xbd06e6373e8d5872U, 0x3e84c79bbd623981U, 0x3e0857d3bb03681fU, 0x3e3e6f473e87031aU,
  0x3e833f9a3d737b8cU, 0x3e9273a3bdb7e918U, 0x3d4072163d9b7403U, 0xbe4045733ea66f4dU,
  0xbe23df1f3e6d1553U, 0xbb31b2d3bee2ecf3U, 0xbe02064a3d99ba55U, 0xbe8c5ad9be6c0ae0U,
  0x3e32f5ddbc05b587U, 0x3d7aa3073d9f026bU, 0x3e1b0bd4bbc73d4fU, 0xbe021470be519441U,
  0xbe5a41e03e1bcac3U, 0x3e202a68bd93cb45U, 0xbe86eaa3bc8103dfU, 0x3d9ed66d3dcbb877U,
  0xbe7922e4be51b4aaU, 0xbb37f7313d217e4cU, 0xbdb872e0bdaf402cU, 0x3d6bc5533d6e713aU,
  0xbe2c19dbbe62c59bU, 0x3dcf72b43e1a82bbU, 0xbd121ff93d582f34U, 0xba0bee2fbdd8ff63U,
  0xbca67f3d3ddb31cfU, 0x3dbe3b133e35618eU, 0xbdd314db3d2e0fdcU, 0x3e25911138ffd554U,
  0xbe9468223da91ffdU, 0x3e7da95f3e054124U, 0xbd32dbf7be35b46bU, 0xbcfb2e853d26f84dU,
  0xbd9de713be015fdaU, 0xbc80aa0b3d10c577U, 0x3d99c572bdf2d5feU, 0xbebcd26ebd7bddeeU,
  0xbda7dd35bdd9e2e1U, 0x3dfeccb93e26f65fU, 0xbe49e193bd1de59dU, 0x3cd8b38abe2d0c3cU,
  0xbd641578bddaf3adU, 0x3cbb953ebe14b007U, 0x3cae0ac43b0ce1b9U, 0xbcc139593c9c4b8eU,
  0x3d09a1703d9e853eU, 0xbd86ab7f3ca3ba75U, 0x3deadda43cc3d2eaU, 0xbe7bb4d5be871fdcU,
  0xbe8dabb5bd529130U, 0x3dffbe5ebe6717deU, 0xbe6c34afbea6cd94U, 0xbe48b4da3dbc3ac1U,
  0xbe142c92be872405U, 0xbe5267f33d249402U, 0xbcf48af6bdc1a0ecU, 0xbe36c46fbdfe4049U,
  0xbd609de3bc293366U, 0x3cfa233dbe184b61U, 0x3e27b185bdcf86d5U, 0x3ca4d253be9f8823U,
  0x3ead6e5dbd9b81dbU, 0xba4f06bcbcde2a27U, 0x3dd4c110bcc1660bU, 0x3e5cab593db4163fU,
  0xbe6907113dc8537aU, 0x3dd8727e3cce9cf0U, 0x3ac49f213e87cf27U, 0xbcfa6adf3e01b856U,
  0x3d59de3fbde46001U, 0xbe5a6793bd520cdfU, 0x3d5f1fafbe7420f1U, 0x3de847f3be8c124cU,
  0x3e683c6abdae8706U, 0xbe49f6c73c338d07U, 0x3eb13ed9bdf74514U, 0xba34ede1bdc699b1U,
  0x3d9d88b0bd92e076U, 0x3e067a253e4b249cU, 0xbe0a2c843e3fd453U, 0x3cdb42483dbc78a2U,
  0x3e44688ebf0a3f86U, 0xbd7f547fbdf5785bU, 0x3e246319bda6b17bU, 0xbe3039dfbe049dacU,
  0x3e6c8e8ebcef0f4aU, 0xbe72b4dcbeeb6d25U, 0x3d9bc2ff3e649d8bU, 0x3d580d7fbd2b5982U,
  0x3d9995a4bd437342U, 0x3de68338bebecc95U, 0x3e43e6f63e026015U, 0x3de392f6beee4998U,
  0xbd07672ebe8da637U, 0xbcf5d871bd4f9178U, 0xbe2286833e671cc1U, 0x3e2bab533e71bc47U,
  0x3d8dac37be7d33eaU, 0x3da342b8be089e06U, 0x3e8c6f7d3cbeca15U, 0xbcb825d7be403c34U,
  0xbdd89b283e474667U, 0xbe80b3cbbe5bee03U, 0xbd27d32b3e159500U, 0x3dbf6edabe131fd8U,
  0xbc537c45bdcca21fU, 0x3e39bf04bd8f9e00U, 0xbd41b8de3d87b833U, 0x3e01ae60bc29404fU,
  0x3e9a6c9abe61da19U, 0x3e436e81bd8cb655U, 0xbd7abd663de27053U, 0x3e1b4d69bae9c04bU,
  0xbd7cbdc53cc28ecaU, 0x3d4625ad3e2175c8U, 0xbd0f8b29be522de6U, 0xbe16ce7cbdbab87cU,
  0x3e2a2e79be837015U, 0x3dacf3c53e9952f0U, 0x3e94e3f03db8c13eU, 0x3d358fd1bde8ebaeU,
  0xbd3c23a0be05c7c1U, 0xbe14817abdf03684U, 0xbe2068dfbe09d684U, 0x3df95ef93e2c486aU,
  0xbcf2af963d8dc054U, 0x3d18cb37bdf06ab8U, 0x3da7eb70bd3e8b6cU, 0x3e609c52bd9f0739U,
  0x3e77f55ebda8dd66U, 0x3e488bad3e22f589U, 0x3e3daca2be39bb87U, 0xbd591084bcf3c698U,
  0xbe1966063df7ef10U, 0xbdbd214e3d964d7eU, 0xbda43e11bdff0db7U, 0xbde6d46cbda48c66U,
  0xbdd25b5dbdca2ff0U, 0x3d31ff683e0d2b4eU, 0xbe2ae3a23d599cc7U, 0x3e26c800be46aad7U,
  0x3db465883e51ea97U, 0x3e1ebc59bcbeac8dU, 0x3de516fbbddafc08U, 0x3e6eb1743bb55c69U,
  0xbd8cfa7ebdfa6ef3U, 0x3d70db02bdc5bb35U, 0xbd48103dbe2c0bcfU, 0xbe6549803e1c837dU,
  0xbddfe861bdf6776dU, 0xbd102d583d8cfcfaU, 0xbd2c022e3da2bd76U, 0x3e24b7fcbe2d35b6U,
  0xbc42d36b3d8fb07aU, 0xbcea1b683e615b9fU, 0x3ebc48703dba7a63U, 0xbe946518b9e4cad7U,
  0xbe04600fbc1aa7d2U, 0xbe6032933e66bea9U, 0xbe0d45d0bdfea976U, 0x3e286f623dca21cdU,
  0xbee48969bd894425U, 0xbe4ae8f3bdadb552U, 0x3e889865be20259aU, 0xbe19b4a03d920c7cU,
  0xbd20a806be2b7140U, 0xbc67e3a83e3bebd7U, 0x3e9ab80abd199ea6U, 0xbc8c8b933e6234daU,
  0x3e8f31733db2c054U, 0xbdc08ccdbe4df3bfU, 0x3e056c54bd722f92U, 0x3e9e30cb3d58b004U,
  0x3b1bcad03dae430aU, 0xbe57b2fe3dc3319bU, 0x3e722a6abe11f324U, 0x3e9224753e008d1bU,
  0x3c8de2943d2a53b4U, 0xbe82fd23be4c7fc2U, 0x3db171d4bb3c0ee9U, 0x3ea463e63d1ef0ceU,
  0xbe8b32e93dd51baaU, 0xbe831477bcfabb70U, 0xbd89c0353da1f5ceU, 0xbd8a2ae43e0b64beU,
  0x3e0a6f07beb98ffeU, 0xbd49aae33ea355aaU, 0x3d7a1eabbdd9c52fU, 0x3c616914be6634a1U,
  0xbf52b6e53f106d83U, 0xbe52442abdfd6baeU, 0xbf0eb84b3f2a56f5U, 0x3e199bc2beea897bU,
  0xbe43dad23f140402U, 0x3ded69cdbf86960aU, 0x3f11fee83ea7fd97U, 0x3ec50d0c3ed09a51U,
  0x3fadec0bbd35e7d4U, 0x3f067703bc7d97bcU, 0x3f354a973f673235U, 0xbe21f4143d80a9faU,
  0xbe3d61c33e8bf610U, 0xbcecbd81bea11b0dU, 0x3e3436923e5feb71U, 0x3e192cebbe9f951eU,
  0x3ea6fe0abee26b53U, 0x3df76f88be66bb4fU, 0xbddcfd353e31cca2U, 0xbc31da0f3de353f0U,
  0x3eafd9b93e88bd9aU, 0xbd904999beb7d1edU, 0xbc3823003e953134U, 0x3eaf4624beb79c51U,
  0xbe4cf8243df05861U, 0x3e0aaa533ee56c29U, 0xbe8ca6143dd639e1U, 0xbec9ebe83cc041c8U,
  0xbdb487c2bd964a8cU, 0xbdba6504be8f3ac1U, 0xbe5689c7be0f27c8U, 0xbeaab949bd0090beU,
  0xbeb58ad2be7217ffU, 0xbe258a753d614e4aU, 0xbe44062b3df6e8d9U, 0x3ec377f9becc95ddU,
  0x3e642d84beedf979U, 0x3d6d94a4be88db15U, 0x3dcc7070beb659e2U, 0x3e164e1a3e057d96U,
  0x3e2bddfa3ca4d06cU, 0x3d11ca683ebf475eU, 0xbd85cae03e3157e7U, 0xbec1345dbf0a5bd9U,
  0xbeb777e83e7fdb82U, 0xbca292adbee91dcfU, 0xbf0d1d6e3ecbfbacU, 0x3e4d8962be02804dU,
  0xbd628afebe66c567U, 0x3eaec58abe4dff04U, 0x3ed331d13e3da091U, 0xbd9b2d67bdc95f78U,
  0x3e2e7f713ece7c4aU, 0x3e6b3a523d207498U, 0xbedbafcebe29bbffU, 0xbe140dbc3cf62373U,
  0xbd9d9d34be00bb2fU, 0x3c02f998bd0b569bU, 0xbeb491f93e9c4605U, 0xbed03a5d3da5650fU,
  0xbe5259a13f0f05b7U, 0xbea1d5b8be03bed6U, 0xbe2da3f03eee807cU, 0xbebea87c3e82ff35U,
  0xbe475dc3bf28c4aaU, 0xbe3837c3bf09b76eU, 0x3e1f9842bed6db08U, 0x3e0aeb683d6e8f65U,
  0xbe86cd11be27e069U, 0x3f43aaf4be95c712U, 0x3f145c893eed1e54U, 0xbde29b723e0c6859U,
  0xbd60f4a6be6e31c3U, 0xbee990163e53b329U, 0xbe99bba1befeb84aU, 0x3ee6949b3e281865U,
  0x3e84bb843eca4802U, 0xbe8848ee3e99f8e4U, 0xbe755e133eac55cfU, 0x3ed18248be14fd0dU,
  0xbea452e6be2373e2U, 0xbf2199463e83df35U, 0x3efb85913ea7b127U, 0xbefc55d43e2598fdU,
  0x3df8e038bec2b4ceU, 0x3bbb8c5f3ddf61d2U, 0xbf08cec6bd0a3be9U, 0x3e040fea3d78f89cU,
  0xbe73ab3dbe2e9c09U, 0x3ec2a5a7bead5081U, 0xbe4775b53df538a2U, 0x3d6087313ee196c6U,
  0xbe638f32be87cf9cU, 0x3e8247323d914713U, 0xbde754623f12d512U, 0x3f14536cbe4f4d7aU,
  0x3f0fe3c73e0964d5U, 0x3f5035f0bf28c70eU, 0xbe8f74f83e11cc58U, 0x3dda3fb7bec76cfbU,
  0xbf05a8c0beab0f5aU, 0xbe14c9fcbe31a6a2U, 0x3f117e4cbebfac9eU, 0x3ea89c31bb25d4e3U,
  0x3e4fa63b3ef5758fU, 0x3f0cdb473f252bdfU, 0xbe5316453ec49b52U, 0x3e9609113e22bdbcU,
  0x3c9ae0293f1acb9eU, 0x3e951b2d3e14de43U, 0xbf228c4cbe09f640U, 0xbdc8d6e2bf05e057U,
  0xbe158dd33ee520e0U, 0x3dc2ca9e3e25990dU, 0x3f66f93d3da92020U, 0xbf03a4af3eed4c3dU,
  0x3eeb9b653e1a834bU, 0x3e479e9d3ef9fe29U, 0x3edfc053be923549U, 0x3e8df708be9da7e8U,
  0xbe9ef179be543818U, 0xbcde6a6e3e040f97U, 0xbda238cc3e35f351U, 0xbe918ca2bf0ac141U,
  0x3db87e773e9436f9U, 0x3e6a195d3e1ad85cU, 0x3e04ef13bde1c2ceU, 0x3eb840a23f0d6cd5U,
  0xbcc1cf7dbce2b983U, 0xbe7c437f3e3ef1bcU, 0xbce699943e4d95fbU, 0x3d6776963d08b30dU,
  0xbde835ef3e7ba8c2U, 0x3ea768a83dc3d673U, 0x3b7ad1f7be300c1fU, 0xbebafcb33ea636beU,
  0x3ea036873cae663fU, 0xbdbe2426bda7f0a4U, 0xbe908205beea9d5fU, 0x3d1f969abea2924fU,
  0x3e17d6fabd59bf33U, 0xbe577d08beaec55dU, 0x3e0cef7e3e81b264U, 0x3d701393bd4855e7U,
  0xbf15798c3c3ebabcU, 0xbe374aa3be241866U, 0xbccb42f63e2c8f81U, 0x3eed2faa3e0b5dc6U,
  0x3ea969d23ebb3e63U, 0x3e2153aa3e0b797cU, 0xbe83d7253e4ad05aU, 0xbe4239bb3ee10187U,
  0xbe7185b73e6c404bU, 0x3ccef0ec3d200be7U, 0xbeb867233de487d7U, 0xbe9c7539be975e27U,
  0xbf19b1b9be5ecdddU, 0xbe9526dbbdc9b3c2U, 0x3e998859bb2d338eU, 0x3e3563073d685db4U,
  0x3e8cd97ebd81c840U, 0xbf08c07a3ddae99eU, 0x3e84d6703f0abe74U, 0xbe98a2d0bdcceaffU,
  0xbda3f214be87c6c2U, 0xbd20e3af3b91b4dcU, 0x3e83f96a3e781843U, 0xbe4e99343e29471bU,
  0x3ed5b40dbe38f7a4U, 0x3d9c2b883d968fb6U, 0x3f31b8e9bee17cd4U, 0xbedc4e073e1d8400U,
  0x3ed18998bf8bde50U, 0x3f23abdebe5c268dU, 0xbe472f883e3693f3U, 0x3f1249af3d97a687U,
  0xbf40dd71be4f6abcU, 0x3f1386593d228e08U, 0x3ee23dc3bedc7393U, 0xbf0815afbe96a5e2U,
  0xbe8f3d4f3e816a79U, 0xbd396b8c3e4571caU, 0x3ebd0459be6a8aa5U, 0xbe949d6bbe8f733eU,
  0x3ec3717ebe5b1ffeU, 0xbba7be2abeaec5f4U, 0xbdf3d69a3e44023dU, 0xbe7026fb3e95b71dU,
  0xbe85a8cabe3f1c8eU, 0xbdf2e7a1bd1d44daU, 0xbeb3cff2bec05573U, 0x3e14b3debe2415abU,
  0x3f2389de3e2e0817U, 0xbe4921eb3eadef6fU, 0x3d2a634c3ee80877U, 0xbebc5bbfbf0dcafaU,
  0x3eab69143e67debdU, 0xbf2c47cd3f26ed51U, 0xbe70db08bdc70d96U, 0xbe21b55fbe93e864U,
  0x3e77379d3f17e74fU, 0x3e75aade3ef4f47cU, 0xbe8ccbf03eaf13d4U, 0x3cea90e73d58f895U,
  0x3ede1b45bf2e1dbaU, 0x3eb9e7e23dfb9ad4U, 0x3da134943f3715d9U, 0x3f1e86e23d989530U,
  0x3dda8475bd3343beU, 0x3e67b5c63dae44a4U, 0xbcfc90bebe8dd850U, 0xbea06550beae0783U,
  0xbd2f3d873d6b0fabU, 0x3e43c7773ebfd86aU, 0xbea20614bc0f539dU, 0xbe440e9f3c073134U,
  0x3ecb1c943e81ff76U, 0xbced6fb73e94fbe9U, 0x3edf9ad6beeab159U, 0x3ee0df2a3bfd86fbU,
  0x3eaf5331bf01af73U, 0x3e20f93ebe2968a6U, 0xbca4323dbec0b3e9U, 0x3e0daebd3ebae2d3U,
  0xbe941b8cbd83d848U, 0x3e12ce99bde72356U, 0xbe595a843ef31655U, 0xbeb3cfd83eabe358U,
  0x3ebbb81ebe0ea1b4U, 0x3ee80a573ddebae7U, 0xbefb2502be93b9b0U, 0xbebb2fbe3f1e4478U,
  0xbe521c483e8af2caU, 0x3eda04c33d563d37U, 0x3e60bdff3b6c20f1U, 0x3f3a6afdbebef783U,
  0xbeb8302c3ee4cfbcU, 0xbeb316183f1e846dU, 0xbed91a5c3efc42c3U, 0xbf11af6c3ea25db0U,
  0x3d6016253da82cfeU, 0xbeea196e3f088814U, 0xbefa38153eac44d4U, 0xbe0cf633bd937af4U,
  0xbe7152bbbb14e46fU, 0xbdd8bddabe8f4082U, 0xbed265babe0c925aU, 0x3d6ba0983edb9b61U,
  0xbeeb46c7beec027dU, 0xbea8c1083e5708a4U, 0xbb95de08bdd8acbeU, 0xbeac80153e74c118U,
  0xbedac1fb3eb624dcU, 0xbebee0673db6b0bfU, 0x3e2c9960be19ab60U, 0xbd209d45be7cc6b2U,
  0xbf1414893e1105b3U, 0xbeb1c645bee5d51eU, 0xbd6ec17b3e464c0eU, 0xbe60b5ccbb9f7ff7U,
  0x3cfe46b93d279510U, 0xbdba7cab3ea50ad0U, 0x3e88e3473d5f5a22U, 0xbef0a4ebbe79bb27U,
  0xbea801263e8faa19U, 0x3f08a2ec3eb1eceeU, 0x3db1f9193e4592f5U, 0x3e80e3ff3f0262e9U,
  0xbda87bd9bd645267U, 0xbee60a453f047882U, 0x3ea5835839c60b92U, 0x3d2a0a343dbda9caU,
  0x3cfe63903d9b2db3U, 0xbe165d853f058d3eU, 0x3e55b5943e8bf473U, 0x3e5eaf613ec1d4e8U,
  0xbd50008d3e86c706U, 0xbe8774c4bf0d1be0U, 0xbe210fb7be89d9f7U, 0xbe71b784be06d05cU,
  0xbd394e753e99083fU, 0x3e0ed683be8eeadaU, 0x3df624ddbe897e4bU, 0xbddd05c63eb1f3a6U,
  0xbde01d603f12ea2dU, 0xbe5e9388be318b0bU, 0x3ed91c7f3eeb50fcU, 0x3ecaff7d3e0ea434U,
  0x3ed879edbd4accc5U, 0x3eb833443e2ae657U, 0xbe30787dbecae903U, 0xbe15b2b23d2b5090U,
  0x3f0912e83d6ef191U, 0x3e89d1d8be03387cU, 0xbea7e6323e9057d8U, 0x3e6fe7963e1e3789U,
  0x3e943b35be1f9b30U, 0x3d2993d6bec0df5bU, 0xbeb706b1be642d12U, 0x3e2da4873cfbb1e3U,
  0x3f53dad9be1ba489U, 0x3d90c4c73ef444c8U, 0x3d4c35ae3e6167f0U, 0xbf6601bbbe12c2b0U,
  0xbe44c33cbf77c397U, 0xbe301c413e1bf410U, 0x3e9f11e03d78a580U, 0xbf39f5d73f2b41e7U,
  0xbed07295bef79e0eU, 0x3f84842fbf2fd922U, 0xbfc8f32d3f67d092U, 0xbe2c9afebc0ba880U,
  0xbc8fa016bd8d8789U, 0x3e6fde8bbe090da6U, 0xbe168aa9be1cd403U, 0xbe3b4ef8bd8abd02U,
  0xbd1f827abe53586dU, 0xbdbb3f35baee6633U, 0x3e9dade8bdc3bcbaU, 0x3e3edda0beab6637U,
  0x3d1176103e0c399fU, 0xbe7e747dbe1bcb87U, 0x3eacfcf83e5a7fe9U, 0xbd10dff03e961955U,
  0x3e052e70bdcc155dU, 0x3e6e713e3ea0919bU, 0x3e2600133e36a257U, 0x3e0174cd3eb513ddU,
  0xbe3fc9fbbe405061U, 0x3df22289bd912bb2U, 0x3de5f70abd0883acU, 0x3e0400c53d462bf3U,
  0xbe15d7c1be2a152bU, 0x3a9937983d0dc9f5U, 0xbde941813dcfb68aU, 0x3e3d271e3b957cafU,
  0x3e498e903e5a8201U, 0x3d2d317f3e15e216U, 0x3d8e58813a88a517U, 0x3e08ea39bd4ec2ecU,
  0x3e9702593dac6189U, 0xbddeddbbbe29cc4dU, 0xbdff6e8a3e977fd4U, 0xbd146dbb3df055fdU,
  0x3db7476ebe56e619U, 0xbd9c4569bdd2702bU, 0x3d1bbcb83cd56922U, 0x3e59c0123ea05c17U,
  0x3e071d53bcad40e2U, 0xbe9159db3e347d0bU, 0x3db3f1e73b172c08U, 0xbe0e7aedbc6dbda9U,
  0xbd3008eb3e0a7b2aU, 0x3b5b033cbc7a0ccaU, 0xbd7929afbd0e25afU, 0xbe743771be0c2a85U,
  0xbd0be54f3c6fbb4eU, 0x3da78c5cbe8f1910U, 0x3e02465f3e366fb9U, 0x3c9167b6be0bbd81U,
  0x3e1c000e3e33494dU, 0x3e0ebe8e3af0c465U, 0xbd0f41dc3e959e2fU, 0x3e191dfc3e9b153cU,
  0x3dfa07f2bdb7a383U, 0xbd8d4ee9be896943U, 0x3bf8a453be17d286U, 0xbd84bd94bdb35595U,
  0x3e30d365bdf8370cU, 0xbe39f7da3d8cd481U, 0xbe3512dd3db473afU, 0xbdfb09ccbe2929a7U,
  0xbc4893963e9a68a0U, 0xbd50ba523e7aa357U, 0xbe96a4adbe0a102aU, 0xbc4f7847bd7466d7U,
  0x3ce5abd0bd8170dcU, 0x3e8417403e9cf9feU, 0x3cd75bfb3afc2299U, 0x3d6314ab3c9506fbU,
  0x3d2667abbdac3ba7U, 0xbe6c9e20bd94ecaaU, 0x3dcbdde0be7e8074U, 0xbde4dd733deba425U,
  0xbdffcc9fbe98408bU, 0x3eb4819d3e28b248U, 0x3d9e318abc550c15U, 0x3e564fafbe60f726U,
  0x3e0e868f3d898cfeU, 0x3e16e858be558612U, 0x3e1f588cbde5d8c5U, 0xbe19a4b8bde7ac73U,
  0x3e55a3bb3e56684eU, 0xbdba5cec3db9b008U, 0x3e84d5df3c030ddeU, 0xbcba240c3cff8d70U,
  0xbe3d00d0bedeb61dU, 0x3e266fb5bdbd4e2cU, 0xbe5bb92e3d8939b5U, 0x3e04668a3eb65e1eU,
  0xbdde35053e48a3ddU, 0xbda5d0dd3e455a3eU, 0xbd7a299ebe9ea2e9U, 0x3dcf95023e699b4aU,
  0x3dfde9e5bdcfdd58U, 0x3db9eb443eaeb529U, 0xbe008cc43dc2cc97U, 0x3da0acc7bd4608acU,
  0x3e201a2e3cb6b38aU, 0xbdc78afa3b4e0b5eU, 0xbde0ca973ec879eeU, 0xbca3ccd03e971c73U,
  0x3d33d79cbc4826d9U, 0x3d8fcb30be3f508cU, 0xbc4c13123d0c59f0U, 0xbe243d5a3dedda1fU,
  0xbe242bc33e1c91f9U, 0xbdc6fcb6bdac079cU, 0xbba756073e3bd5c2U, 0x3c3bb463be3d51a9U,
  0x3e3ea5e83dfbc32eU, 0x3e20ab6ebd04f421U, 0xbe3396b1bd4f6770U, 0x3cf23d59bd411b72U,
  0x3e8f39e8bd777859U, 0x3e1440d53e844a65U, 0xbd869ed0be4ca1bfU, 0x3dc474b23e2a6fd4U,
  0xbe1752bc3dc80a85U, 0x3dff7c3ebcb3c8bdU, 0x3e936c593e332c0cU, 0x3e140a4b3e06d559U,
  0x3d823ba6bd522f0aU, 0x3d99600abd6050d5U, 0xbe71cb51be700cc1U, 0xbcf181d4bd80da94U,
  0x3e619c3c3eaf03bcU, 0x3dc0a1493e0d21bfU, 0xbe9015633d960e7cU, 0x3cfdeb1abe31f7f2U,
  0xbd1c395b3ce42109U, 0xbd53c0b03d37dfe2U, 0xbce8235ebe8023ecU, 0x3ceb224e3de5a5b7U,
  0xbd88f308be8dad70U, 0x3e4cca993d46ddfaU, 0xbdd75813bd45280eU, 0x3e3dc972bc60f31bU,
  0xbd199099bd80ae6eU, 0xbe81eb00bde6f523U, 0xbd6a4b79bc506bb9U, 0xbe1d71d93e0f559bU,
  0x3dd5eb81bdb75621U, 0x3e22a6dabe96b704U, 0xbd7938053df6d2d8U, 0xbe3ad266bcf2661dU,
  0x3dccea833d0cc829U, 0xbcd36a3abe6bfa8cU, 0xbdff4166bdb1535eU, 0xbcec16b63dfbb2b6U,
  0xbe700f30be8010d6U, 0x3de67c0bbe271e00U, 0xbe8b1998bc4edde3U, 0x3e32bda9bd9e7434U,
  0x3d342570bd882068U, 0x3d9b91733e1092f9U, 0x3cb782d43e774d00U, 0x3e803c58bdeed3afU,
  0xbd33cc633e4369a5U, 0x3e36b3e03d1e14b1U, 0xbe5136083e927db3U, 0x3dc3debdbd8bf532U,
  0x3ea0b985bd51de4dU, 0x3df0d503be3a6bd0U, 0x3ebe65ff3e60eda7U, 0x3db9258dbcaa374bU,
  0xbd248a83befa5022U, 0x3d8c5884bce2c3a3U, 0x3ddb124d3e51bb99U, 0xbe3f2e36bd99a9e3U,
  0x3cd0ed0abe518ed0U, 0x3d82cc6a3db66e39U, 0xbe3f6e6d3dbc5f4aU, 0xbdacc250bea981e4U,
  0x3de6d3dfbe90990fU, 0xbe5c3c533dfa46c8U, 0xbe2c2f503dab56f6U, 0xbcaaa0b03e044d60U,
  0x3e946edf3e10d088U, 0xbd564faa3e3bbdd7U, 0x3e4d13e63ea4ffa8U, 0xbe005a953e0e9850U,
  0x3dc5e4443d7b4dffU, 0xbd881e943eac51b9U, 0xbe8153b9be53d85fU, 0x3d52fd2b3e366260U,
  0xbe2a16113de218aeU, 0xbdccc8e7bd788434U, 0xbe2cd1f1be1c03ccU, 0x3e01351b3e3632a3U,
  0xbca8733c3e7f756bU, 0x3d2e3d93be741bf1U, 0x3d8246e3be8b96a9U, 0xbbbed3423e83747eU,
  0x0U, 0x0U, 0x0U, 0x0U,
  0x0U, 0x0U, 0x0U, 0x0U,
  0x0U, 0x0U, 0x0U, 0x0U,
  0xbe572f763d923b91U, 0x3dc60ba83ddd7c17U, 0xbd0d21a73e1d0841U, 0x3e531aeabd21a7b5U,
  0xbe49e5a5bdd642d8U, 0xbdf45c9abd180a69U, 0x3e319732bdd27d1dU, 0xbd98b37bbc519350U,
  0xbca187c23df23b37U, 0xbd7ebc59bdf83960U, 0xbca6cb97be5b3c45U, 0x3e35828e3d7fe080U,
  0xbd6fb4513d11139dU, 0xbd60b8ecbd2ac95aU, 0x3ce1ee4cbd44719eU, 0x3e7d5b7bbd390a6cU,
  0xbcf910973d92a719U, 0xbdcf13adbe255c57U, 0x3db224403da0418aU, 0x3dcf2706bda17726U,
  0xbde3699b3e1a3cc0U, 0x3deec6f23c408946U, 0x3e9f29babd570556U, 0x3de2aca03e2d28b5U,
  0xbd6f84c93e18d87bU, 0x3c6c3779bd8d0913U, 0xbd6bfa6a3ce89ce8U, 0xbd03df9fbcee6df9U,
  0x3cf968393dffc509U, 0xbe108a673da768daU, 0x3d94fefa3c7d3b5aU, 0x3beb9d933e36366bU,
  0xbe9cd4f73da05af9U, 0x3d1873dabdab569eU, 0x3e84974d3e0b644eU, 0x3e1f27a4bdea8e55U,
  0xbd763238bdbd9e44U, 0x3d39c0983d0b94a9U, 0x3da28b0b3e35ef0eU, 0x3d011dfdbe0e9f51U,
  0x3d4786bcbc958148U, 0x3d12507b3dfd0dcdU, 0x3d0b4c473e06f32aU, 0xbe0d5c6fbdbf96a2U,
  0xbe06d9793e1065e2U, 0x3b5a49103e4be6fdU, 0x3e6bd83dbe37a303U, 0x3e26fafbbc83b7b6U,
  0xbe86b5243d88e6aeU, 0x3da08f563cac1548U, 0x3e79ea93bdb30af0U, 0xbc61a2f23ddbe99dU,
  0x3d5fd75c3e030b96U, 0x3e470cc73d9c3d29U, 0xbe75d1923d5e421dU, 0x3d9029713e491043U,
  0xbd5c49223cc44b4aU, 0xbe3663093d3d9c15U, 0x3ebd6105bdff4c79U, 0xbbf00ea2be6a2561U,
  0x3d4a60f83c9692f9U, 0xbd04f6e8bdf03413U, 0xbbcc31493d5fa5ccU, 0x3d86ef98be5ef9d9U,
  0xbc919a1fbe3ea29bU, 0x3d4cd91d3caf32d1U, 0x3b18450e3db9c8c2U, 0xbd8b3a653d910aefU,
  0xbe2677bcbdc232e7U, 0xbd8106043dd77870U, 0x3e26c200bd3fe616U, 0xbd991c743d26f29eU,
  0x3dfa5a693dc72859U, 0xbe4aa4e5be1bfa64U, 0xbe84d9123e4fa0eaU, 0x3d9a67203e0ad352U,
  0x3d263afd3e2a7461U, 0x3cee8c47bc9764d1U, 0xbdcdc59a3dbec169U, 0xbcab11cc3e2dadafU,
  0xbdd457d9be10787fU, 0xbd4a834abe037a24U, 0xbd97964b3dc96c14U, 0x3d9f8819bd988868U,
  0x3e04309a3cadfdd3U, 0xbdc93d4bbdb7ca42U, 0x3dc9952b3e760a20U, 0x3d17505a3e1aed01U,
  0xbd5c21e23da033eaU, 0x3e299856be050970U, 0x3e7074573df4fdb2U, 0x3e0f2fffbc41d794U,
  0x3c4b59663e25bdffU, 0x3dff8440bc45029cU, 0xbda840453dcafebbU, 0xbcb16e1b3e291235U,
  0xbd87d53ebe033b47U, 0x3d7f3435bca78649U, 0xbdbf0edb3d2f6afeU, 0x3daacfacbd39aacfU,
  0xbd7e223d3eb1d9baU, 0x3dd28e593da3be63U, 0x3b9a8754bda16316U, 0xbd4cba593de17ca9U,
  0xbdcd4e693ea330c8U, 0x3ded6da1bcf2e303U, 0xbe1896213ded1e29U, 0xbe555f47be264ff7U,
  0xbde1bc7f3dc50fe1U, 0xbc2cdbf23e24342bU, 0xbe6dd11cbd46376aU, 0xbe1dba62bb984165U,
  0x3d39c319bea7941eU, 0xbe8f24293e6f3428U, 0x3da61886be38af6dU, 0xbe2d9eddbe1d86ecU,
  0xbd8c7c13be4be714U, 0xbe5d6ea03d3906a1U, 0x3d61964bbe6d609bU, 0x3db847ffbe030f9eU,
  0x3e1ef24fbdd496c4U, 0xbd868e443db75fbbU, 0xbdbdf82c3cc78315U, 0x3d666fdf3dd697d6U,
  0x3d8bb0a9be1cf611U, 0x3db700ac3e164c58U, 0x399d09d4bd03e7ebU, 0x3d7994cdbe06791dU,
  0x3da393a0bc7977c5U, 0xbe1ca7dbbdc922c3U, 0x3d04ee8dbda5b0e1U, 0xbd437d893e4efb08U,
  0xbe1bf52c3b86c54cU, 0xbe43fee93d550efaU, 0xbe857b06bdd5e54dU, 0x3d6793a53e7adff3U,
  0xbcac93b53da231e1U, 0x3dfab05a3bf489fcU, 0xbe0a13ac3e87d6c2U, 0x3c800ec7bd9540e3U,
  0x3e631e60bc32d513U, 0xbdd7a9373e04c4cfU, 0xbea75cad3e5ad92aU, 0x3e57a2b23db5a62eU,
  0xbe6591623e2831bbU, 0x3e3edba73caaa2fdU, 0xbd6404693d1b0023U, 0xbdc45c2c3b47d54cU,
  0x3c436f063d2b6bbcU, 0x3d80aa4e3d96d566U, 0xbdd7cc7d3d53425dU, 0x3e22f6653c8e50b5U,
  0xbdc4f1b73d71fb7fU, 0xbd8942b43d94c926U, 0x3ca47ae33db80835U, 0xbe05e9b43cc8fc95U,
  0x3e05e1bf3e48fe30U, 0x3de281e0bd4215d2U, 0xbe0535073e67eca9U, 0xbd41f347be2489aaU,
  0x3cf931513d219939U, 0x3dc371e43e0620c9U, 0xbda6a9e73d58ff5fU, 0x3d77123a3e09e0ffU,
  0x3d06e908bca655d6U, 0x3ce8ab38bda27eabU, 0xbd88243e3e1d3cd2U, 0xbcf80c26bd39ef03U,
  0x3e00c6e13db31e54U, 0x3d3fbe05bdce367fU, 0xbd44cdd93e5597e6U, 0xbdc735973c911661U,
  0x3d6d8dc1be0c7bffU, 0x3c9d4d0f3d06607cU, 0xbc81e251bd8ff9d5U, 0xbd9a86d83dde4ec7U,
  0xbcf7d336bcbc9eb7U, 0x3e1222bebe087916U, 0x3b66b27b3e1910abU, 0xbdffc81a3e80cdd0U,
  0xbcafeeafbe43716dU, 0x3dd4bd14be3b2e40U, 0x3e02ccc73d1d51feU, 0xbddd06373db472a1U,
  0x3dd112fabe3164efU, 0x3dcdf9503e43cf7bU, 0xbd60ce5dbd36f46dU, 0xbe79ff34bcad9717U,
  0x3e26043abc9aedcbU, 0xbe168948bdbca595U, 0xbdcd70c6bdd544e3U, 0xbd3b56b63ce242f1U,
  0x3d5aae8cbcc65048U, 0xbe30ac06bcbdec2cU, 0x3e24b1633d4d9428U, 0xbd64a3e33d103ea7U,
  0x3a032e6ebe081377U, 0x3d0f20733c68cc4dU, 0xbd44ce3abafd7cd8U, 0xbe80335ebca3f9c7U,
  0x3d95692abdf19aa4U, 0xbdad94f9be228894U, 0x3d7a930e3d4b42bfU, 0x3e3f11e7be00348dU,
  0x3d9e200b3e3196b4U, 0x3c260c303dc83f39U, 0x3d21c090bd5686d4U, 0xbdb1b6a5be1b54daU,
  0xbd04af5bbe49e4f6U, 0x3af6f3bc3c9ca919U, 0xbe0f72b7be606c11U, 0xbe97b8963e514bbfU,
  0x3d28268bbdbee630U, 0xbdeba9a83d91e8fbU, 0xbdfc2b853dbae6e9U, 0xbcb948e9bdcc8155U,
  0x3b59d1d03e264a51U, 0xbd807ec8bcf71251U, 0x3e6657303d5edab0U, 0x3e7eca17be4383e3U,
  0xbe22e41dbe027a17U, 0xbe16afd0ba237222U, 0x3eac2720bb6a8796U, 0x3d2aea0f3e4ce7f1U,
  0xbd6b13333c299433U, 0x3dd589063da25e82U, 0x3dbd8c0abe4c9d75U, 0x3ba052373d1d6385U,
  0x3cd0ac1d3c9e9b31U, 0xbe1976313d2b7cd3U, 0x3e0c9926bdc28852U, 0xbd6bc916bdfd5050U,
  0xbd7fb0bb3d3f0e64U, 0x3df0b8113cc2d000U, 0x3edc3d533e5d46aaU, 0x3ddeb3c03d60dc0dU,
  0x3da44cdd3e130998U, 0x3c39fc2e3e68ecacU, 0x3e4b13a1be28b33dU, 0xbd3d8a20bd4ac405U,
  0x3d6894ffbd920778U, 0xbdcfb87fbe0e59c6U, 0x3e6c5db53dae2a57U, 0xbd16076fbe03eb13U,
  0xbceeec6abd1e9a31U, 0xbce1b3253d6c47afU, 0x3cf191583b0ed302U, 0xbe304bdebd5df5ddU,
  0x3d70b48d3e23adbcU, 0x3df953063e321096U, 0x3dfa13c3bbc89dc9U, 0xbec32cc8bc32bb23U,
  0x3d30017fbe811316U, 0xbdf8501abc222dfbU, 0x3e1bb1a63d961bcbU, 0x3e72d2693cf95014U,
  0x3e3d68b33e3eb9e7U, 0x3c849a9dbd87b1b1U, 0xbdb7d3903ce3b0c2U, 0xbdc62268bd74a508U,
  0xbe85b9b9bd940185U, 0x3ea5abdfbddac86bU, 0xbdb29d8cbb393b6fU, 0xbe1be413bd37dc49U,
  0xbdfaa688bd48a47bU, 0xbce03cf93e7a619fU, 0x3e46e7783d1fcc14U, 0x3e0896543d3f2bd3U,
  0xbe35886a3db27768U, 0x3e24da923e1185b0U, 0xbdbb3f51bd6ca50dU, 0xbdd24a58be46898cU,
  0xbdf5f36ebbcdc64dU, 0x3d5935c4bd85543cU, 0xbe85d0553d98e2e9U, 0xbe0d43f0bd90f2d6U,
  0x3db09504bde8ac85U, 0xbe32e82c3c2a46ebU, 0x3d554a50bb61536fU, 0xbe2ca1c33c1854b5U,
  0xbe0662e8bb24ce50U, 0xbd8e6636bdba6802U, 0xbe17117e3e3af295U, 0xbe3f03763c8c62d4U,
  0xbaea09b5be2153b0U, 0x3c8cc4e2be086abeU, 0xbed8f56c3e51c5bbU, 0xbe1b2a7c3daa3a8fU,
  0x3b89fbff3cc99455U, 0x3e03f2553d7432bcU, 0xbd846a02bdab3d60U, 0xbafa82c63e89aa29U,
  0x3cdd9525be77d7f7U, 0xbccf0d8ebdebfd6fU, 0x3dd5165d3df087b5U, 0x3d3a553f3e093c19U,
  0x3da6eb21bdb66160U, 0xbd65e3753d0d3c7cU, 0xbd47aeb6be84eebfU, 0x3e6fa10b3d8e1cdfU,
  0x3e1e56febd58f80fU, 0x3cef07e73da5b46cU, 0xbe6062ab3d6db30bU, 0x3e494c67bda2bc5eU,
  0x3d57b15f3e6d13daU, 0x3e18633d3d65c916U, 0x3e823ec83cbe9ef9U, 0xbd732c83bc278091U,
  0xbe40d8ddbc40e511U, 0xbe21bc413d67b263U, 0x3d93badebe035164U, 0x3d96981f3db637d0U,
  0xbc2f978a3dca98d5U, 0xbbbd10a9bda944eaU, 0xbd0dd8383dd91b24U, 0x3dad3070bdeca768U,
  0xbd8286773d96d606U, 0x3e39e6febd3e6ab4U, 0x3d8be31dbd9005cfU, 0xbd5f4bf1bd23b8abU,
  0xbe9f17acbd715d98U, 0xbead3cc83df1cd2eU, 0xbe9a6bfdbd9f953aU, 0x3d4a4b38bc7def6fU,
  0x3d1a5a13bd27c20eU, 0x3bc7e4e93e6243edU, 0x3d9799cabe2117e3U, 0x3e91010b3d9042b8U,
  0x3e32fc02be38560eU, 0xbde1aec0be8831dcU, 0x3c9b40513c82d599U, 0x3e7c847bbd429aedU,
  0xbd171f9f3d04b799U, 0x3e06262abe9a175cU, 0x3e35f1963d55d066U, 0x3e128cf43cc79e67U,
  0x3da9643f3dfb10b3U, 0x3e1c252a3e87eab7U, 0x3e4330a0be483ad4U, 0x3dc82139bd6834a6U,
  0x3dd500823b86600dU, 0xbe2d898f3de024afU, 0x3b7c60f6be292896U, 0x3dac47b8bc989de5U,
  0x3ccd45bd3d9acbecU, 0xbd4c3933be596d45U, 0x3d09da863d6ed980U, 0xbce77e6dbcd7c5beU,
  0x3df72eb43d2ad942U, 0x3ea3a8a83e1a1d8eU, 0x3ddf9612bc7cdabcU, 0x3dcf0ae5bd7074c2U,
  0x3e42b25a3d8edb19U, 0xbda714d43e9bcd56U, 0xbe2f2587be4b84b0U, 0xbdb1442ebb540a5dU,
  0xbd996e86bc67952fU, 0x3e290be23dd24a70U, 0x3d1507983daa8febU, 0xbd52399f3d89403bU,
  0x3e0f69f4bde2d409U, 0xbd2b10c7bd88f19dU, 0xbd9b89eb3e0a4aedU, 0xbd7db2483db21dd3U,
  0xbd449c47bd9a21b3U, 0x3e8126b7bc8a6035U, 0x3d14f9ddbd1c9440U, 0x3dca746fbd77d45aU,
  0x3df151c13c2d7dcfU, 0xbdd438cebbc81806U, 0x3da35e983d9e8b98U, 0xbcd900773d450446U,
  0x3dc5076abe42e60bU, 0xbd6b4eb5bda47a6fU, 0x3c200a1a3dba7d02U, 0x3e2e49e43e736620U,
  0x3c0ff2523e2a7139U, 0x3db322fcbe19cfeaU, 0x3e0e4b16bd2da438U, 0x3d0ab4703d8b23e7U,
  0x3e544afd3d1a37fcU, 0x3d8cbfb13dd3c07fU, 0x3e1a84a63add1726U, 0xbcbe19f1bdbd206fU,
  0x3ddacafb3cef3c36U, 0x3d9b11423deb147eU, 0xbd88eeafbe161a90U, 0x3e127ac83e2455bdU,
  0xbce729143c4f129dU, 0x3c57e49fbd9ab7a9U, 0x3d39082bbe1317f6U, 0x3d73e41abe8119d3U,
  0x3e080b503e215b2eU, 0x3e967f80bc5c3c9eU, 0x3d92c5103cba2b1fU, 0x3e28188ebd07a3c1U,
  0xbe5daf0fbe945d05U, 0xbe0100113e30f12bU, 0x3da97b0a3d874e98U, 0xbe209dcbbca4ba5fU,
  0x3e84278abe3fd0bcU, 0xbeae5a30be6cd1b9U, 0xbea52cdf3e1bc47cU, 0xbe1f9968bc509310U,
  0x3e548627bec33c8aU, 0x3e67cfae3d3b3c06U, 0x3e6fb044bdbdb32fU, 0xbea059633c5d55c4U,
  0xbd5e28a03e275fc1U, 0x3e17e5ab3e234d25U, 0x3e22b6fdbe332f42U, 0x3c66b0993b9916d5U,
  0x3e520a973e23fbabU, 0xbda30383be342c09U, 0x3e0b3611be7c0c16U, 0xbe2933663c80c292U,
  0x3e6df37dbd14a2f9U, 0x3e8469d3be2b55c5U, 0x3cdc36843a03106bU, 0x3ba971e53d5b3256U,
  0xbe90659e3e89e32eU, 0x3c5633b03e9f057fU, 0xbe0a605dbd1b1243U, 0x3ce53a50be3e892fU,
  0x3e7786ee3da1298eU, 0x3e138350bd460396U, 0x3d4ddbedbeaf1801U, 0x3d3f31d3bd1b917fU,
  0x3e23672c3e9c4b81U, 0x3e5ef3c6bd2cc8ccU, 0xbdcde913bc57ecf4U, 0x3e31e980bd960c2dU,
  0xbe01012abe10cb69U, 0xbe84ca953e163d59U, 0x3da99b9fbd995569U, 0x3d8b92103e049a2aU,
  0xbd5967ed3e967a9fU, 0xbe61bcf83dc3b463U, 0xbc5fc12bbd8d11d6U, 0x3e68e0f03dd4825cU,
  0xbb2b1428bd369674U, 0xbe48da693dd9e0feU, 0xbe3ce211bd43b9f5U, 0xbd950122be135da8U,
  0xbe88cc3a3e40088dU, 0x3deba1ba3e38c6efU, 0x3dc3cdabbe26f67dU, 0xbe24a057bc8ea80eU,
  0x3e0bc01e3ea5d019U, 0xbd093b113e60e8b1U, 0x3d7b270bbe100d69U, 0x3d5e85963dd901b3U,
  0x3d982585be59153aU, 0xbd4dc57c3d0e1b8fU, 0x3cd7b81c3d67706eU, 0xbd9f785abe431330U,
  0xbe6595b9be184af9U, 0x3d3a5505be07484fU, 0x3e374712be49ca98U, 0xbe6b03463dbca34bU,
  0x3e023bdc3ee67c00U, 0xbe69bf2f3e84910eU, 0x3e5bb50dbe367e65U, 0xbdac75113e2adb21U,
  0x3e88ffe4bd09d6bfU, 0xbdd07db63da8fbcdU, 0xbe2802043e7ab063U, 0xbe17693cbe8e6c36U,
  0x3cd4936cbdb6dcfdU, 0xbe0d0d82be50ef98U, 0xbe0c3a563e2a192fU, 0xbd1a4bf9bda46c31U,
  0x3de458f73d878d73U, 0xbd57ca28be41c5a5U, 0xbe8cf4a7bd066913U, 0xbb09a92abd7bd1deU,
  0xbd8a95383c07aaadU, 0x3e063630be2c8679U, 0xbdf8610c3e544175U, 0xbe87354abd93a5d9U,
  0x3db5d817bd386da4U, 0x3c8e7314bd30e7f4U, 0xbe098894bd18ea7aU, 0xbd2cb257be3f754eU,
  0xbd17ccbe3d58eedaU, 0x3d283aaf3c9cf752U, 0x3c834342bce0fc01U, 0xbcaaf9dd3cb059d4U,
  0xbd3fc5e3bbaf6f5eU, 0x3d9331843dae8831U, 0xbe36f6a5bcee99b1U, 0x3ddfa8783cd0aaacU,
  0x3e0e8eefbdc484e3U, 0x3dddfa783d1347bfU, 0xbd906dfebd3478feU, 0xbdd7ba21be5d73bcU,
  0xbe13fcd43e27e2bbU, 0x3e0bc70a3d8149feU, 0x3e2193fcbcffa40dU, 0x3de02ab73c814542U,
  0xbdc9c26f3e1d358eU, 0xbe4d67863cbd87acU, 0xbed8637f3e263683U, 0x3e0c66e2bd358b2cU,
  0x3e32d4c93d112010U, 0xbea23f98bdd1bc52U, 0x3d806e28be07b2ecU, 0xbe4445123c0d4122U,
  0xbe2e46f7be05b639U, 0xbdb205bcbd067069U, 0x3cc6d55ebe2daf8fU, 0xbe31b6ca3e122e41U,
  0x3d6d76883e7553bdU, 0x3d002613bbbb9165U, 0xbe0ec426bd5e3115U, 0x3c171db6bd03e8b4U,
  0x3e3a0a0a3ea8b801U, 0xbe874e5dbe0c850aU, 0x3d81209dbd3733eaU, 0xbd483a1ebdcd8fc9U,
  0xbe2071ac3d7d9057U, 0xbdaed6403c0c8c88U, 0xbdd28c413e0059f8U, 0xbe1314233e230f4fU,
  0xbe21be18bdb8d589U, 0xbda567d6bd770376U, 0x3d37b2233e45f4fbU, 0x3d89b8593d8c0081U,
  0x3e1653a0bdfc7441U, 0xbe6f52afbdbd7b23U, 0x3dbd5200be478c27U, 0x3d7daf7d3e1bba2aU,
  0x3e108b45be48ed36U, 0xbe1e59903b34f0b8U, 0xbea9de213dc79a0dU, 0xbd9f37583db48dc0U,
  0xbcc24b48bc4f9453U, 0x3af4cb973c4a5d1aU, 0xbd7813983e17748cU, 0xbdbf5a05bd8da2efU,
  0x3e03170ebcb6813bU, 0xbe249a72bdddb7eeU, 0xbe2a6ece3e88f220U, 0xbe26a9d9bd8a51e8U,
  0xbe877c063decfd05U, 0xbe2ff4eb3c4ed0e4U, 0xbc6d86b5bdeb134cU, 0xbda8b600bd729f45U,
  0xbdd43347bccbca0eU, 0xbd54d102bdf14a92U, 0xbdb1bf11be1280eaU, 0x3e5363043dd6808dU,
  0xbcb8cf2f3dfd76c2U, 0x3c1950383d982dbdU, 0xbdb76d533e4329feU, 0xbda967efbe42aa5aU,
  0xbe3fff9abde8e547U, 0x3cb91b12bcbf7dd1U, 0xbc975192be162d2fU, 0xbde04651bc049dc9U,
  0x3dd9d841bddcda92U, 0x3dbdc820be4054cdU, 0x3b533d0dbd063bd4U, 0x3d609e1dbcbba5d9U,
  0xbd37092c3e165c8dU, 0x3daed8953ddba866U, 0xbe47d8dcbdabb5a1U, 0xbc690ddfbdefb633U,
  0xbdf38432bdd189a1U, 0x3cd4b9a73e584741U, 0xbe1fcec6bbc79238U, 0x3e002fb23d636fd8U,
  0x3e1f87703d001c05U, 0xbdb93a30bd669c85U, 0xbc2f4ce03d066473U, 0x3df88ac83e36ee7dU,
  0xbe2d26143de0968fU, 0xbde8d579be030a0fU, 0x3b819845bdcb0586U, 0xbcf68113bde121e7U,
  0xbdae3fe0bd428315U, 0xbe0024b0bd5cd028U, 0xbd509138be3c775bU, 0x3df4e5143b775ecbU,
  0xbd518b3dbe24bdd6U, 0xbe257768be33f0d9U, 0xbe30a505bddeeb77U, 0x3e0a3977be2d2eb3U,
  0x3de2235f3e1141e4U, 0x3d9d977ebe6f75c1U, 0xbd86d7113e2cb8c5U, 0x3e27013c3e02a166U,
  0x3d78180e3da2fc69U, 0xbdb5da43be294408U, 0x3d12ea9bbdf51d47U, 0x3dd3024e3d885ebaU,
  0xbe13905bbdfedd4dU, 0xbe3d10043cd93ce3U, 0x3b8a6bf4bc08e6e2U, 0xbc41d0e0bd6b1853U,
  0x3d3a98633d3b7326U, 0xbe8abcd3be840cedU, 0xbe3c85773e2b6366U, 0x3d7e913f3e271b7aU,
  0x3d831978be0a2ffaU, 0x3decca92be2c4d62U, 0x3d8e261dbe6d7ac7U, 0x3ddc935cbe19ff90U,
  0xbc07cf67bd126c92U, 0xbb36757dbc210e93U, 0xbe29d286bd159aebU, 0x3d9ed147be13708bU,
  0x3ebcc3cfbe5b6302U, 0x3e3fc0183ecbc0aeU, 0x3e19577d3d8fc367U, 0x3e8420f23e5e67acU,
  0xbd9dd3d6ba80e1a8U, 0x3e49511bbd9bccc2U, 0xbe3675a43e7b04d5U, 0x3da663013e1dd3c5U,
  0x3ecb6891be24a4fdU, 0x3e0a520ebdc700a8U, 0x3d2d8ad1bdb0f2ddU, 0xbe25d2323ec5d6c6U,
  0xbe021b82be679bb2U, 0x3e6793993e27ed43U, 0xbcf317d9bda57d2bU, 0xbd19c8613e8d89ceU,
  0xbcf9bc4d3cdbceacU, 0xbda4da06bd7f3da3U, 0xbded4b853e411536U, 0xbda729243da25f4dU,
  0x3dee2cf8be73c8dfU, 0xbe54eaeabe053e0bU, 0x3dcd91103d8b438fU, 0xbe6fa7f83db173c1U,
  0xbed43d43be40568cU, 0xbe4c21a63e01baafU, 0xbdd9fc0bbd32f209U, 0xbe5d7d5dbcd72cdeU,
  0x3e38486e3d2f94eaU, 0x3dddf4913dfbfb57U, 0x3d9cd9bebe3c1cc9U, 0xbd7abfe03e5c1f79U,
  0xbef1f3583d02ac2bU, 0xbe94ab213beccd56U, 0xbc008ac8bdd0c437U, 0xbde5ac2cbebc489fU,
  0xbe1f1b90be9895d1U, 0x3e3de57bbeb6d8a8U, 0x3dcdf5febe49c566U, 0xbc0506e13db1b77fU,
  0x3e95d9c03df90a75U, 0xbe1e826abdcc5763U, 0x3b7313d3bd5c2ff9U, 0x3d86f638bdc7e695U,
  0xbc0f62bdbeb8aaacU, 0xbb3625093ba1ace6U, 0xbe01e3b33e2adffcU, 0x3c5a7decbcbc19cbU,
  0x3e5a0a29bdf9141cU, 0x3d4b1df5be5f9c48U, 0x3e0376febe1603fdU, 0xbdff5aca3e0c9ea9U,
  0x3c364f3c3e1bfb55U, 0xbe8963333e327a2dU, 0x3db5f3893e72826cU, 0xbd95251b3ace7dd4U,
  0x3d87d73cbe4b1085U, 0x3c0f22dfbdaa7264U, 0xbcb362fdbe2e1747U, 0x3cd015753db2f195U,
  0x3d73553fbe73d18bU, 0x3e0d941ebcf182d6U, 0xbe0cb1a3bd7481c9U, 0x3de304193ddcf9b4U,
  0x3d4152823c75e3e7U, 0xbe2170353dc4ee3aU, 0xbddd1420bc9062e2U, 0x3c3c9eff3e28698dU,
  0xbcca3227bedf414dU, 0x3dcf26ba3dfdd81fU, 0x3d93d03fbe68966aU, 0xbd6d18b0bd9f5589U,
  0xbd65fb033dd0e0cbU, 0xbe6ecf4cbd8bd533U, 0x3d35e9d4b95f697cU, 0xbb9bb1273ce7809cU,
  0x3e7d39e4bcc89ef8U, 0xbdea1639bdd76242U, 0xbd89e9313d971e19U, 0x3ded3c213dbb8e25U,
  0x3e430020bda51e6eU, 0x3e202ba13d9693daU, 0xbdc9fa523e3234dfU, 0xbcac4f6d3dae19a7U,
  0xbe0c0082bcf60cf1U, 0xbe1d28cfbe1c2a1eU, 0xbda5378f3d8fdf14U, 0xbe38e5f03e1909c4U,
  0x3e078a62be028dbeU, 0x3df0b1e8bcd15f2bU, 0x3b22be23bde130d2U, 0x3cecee373e21e2eeU,
  0x3e189d953e01a93cU, 0x3e6aba2c3e0ab584U, 0x3d5a4cb53e479991U, 0x3dc7bd53bd3173b9U,
  0xbe2b3effbe3cb7a3U, 0x3d9558febe145e34U, 0x3d7df8a03d63abb6U, 0x3e0e17efbbe87ac1U,
  0x3e03d7563d7f3b65U, 0xbd55e830be4e82ebU, 0x3d960f22be241869U, 0xbd4842653db3618dU,
  0xbde68e003e40cae3U, 0x3e6a66e43db85e2fU, 0x3cd32a953e22a520U, 0xbdb45f4cbe60de68U,
  0xbe2ecf5c39b30a4eU, 0xbcd7116e3d72fdf7U, 0x3dbfae9e3ca3bf22U, 0x3d42802dbe06de37U,
  0x3d1ca0013e84222bU, 0x3bd9b9dbbe3c0b68U, 0xbcb3a79cbddb24c8U, 0xbca65bc63d446ad6U,
  0xbd93b552be05c2d1U, 0xbdc54cdb3e3419e3U, 0xbe2248c3bd0cd7a8U, 0xbdcb2f333da28385U,
  0xbe3cdf393dff309eU, 0xbd04fbc9bd6a62c5U, 0x3de4dbd0bd6cfbf3U, 0x3e410c13be3cfb17U,
  0x3e3efbec3e0841d8U, 0x3e2e692ebb4d9ce3U, 0x3db67fda3ca41794U, 0x3e2554e43d5057eaU,
  0xbde60584bddeb73eU, 0xbe1846e33e0839a3U, 0xbdc1d2ebbd42a78aU, 0xbe0b13313cf451bcU,
  0x3d8bf4fc3dcd860cU, 0x3e071176be1c2d8aU, 0x3c5d9928bd72e068U, 0xbd4d4e5cbe0cb61aU,
  0x3d1a40743df545ebU, 0xbcfb71f03c8c63d0U, 0xbdb0c997bcf4b9ddU, 0xbdfbb7ef3d53b42cU,
  0x3e272c8e3d8d8538U, 0xbe05174fbdf8a763U, 0xbea42ebc3e0a13ccU, 0xbeb595bc3d915956U,
  0x3d98de9c3df371e1U, 0x3cd35a733da2aa94U, 0xbe148c563e07894aU, 0xbde19cee3d9d875fU,
  0x3d9502eabdce2b98U, 0xb8c8b8acbe1cc1c5U, 0x3d60ebb4be14bb86U, 0xbd8cf3abbbd37f05U,
  0xb9b745d13e103b63U, 0xbc3547aebe60db3cU, 0x3e47979ebdda2673U, 0x3dcf237b3e4003ddU,
  0x3d1eecdc3dbc491fU, 0xbe643ddfbd5025bbU, 0x3d174b81be39ee5bU, 0xbe0065653db946a8U,
  0x3db227c53c8fd8f5U, 0xbe403f08bbf4bdaaU, 0x3d4560073dbcc773U, 0xbdd22739bd63c1f0U,
  0xbe15c9a8bdf10e18U, 0xbe058934bed47c47U, 0x3e6c09353e70ae34U, 0xbdc777753e679a1fU,
  0xbe5d956c3dcc7119U, 0xbe089e603e4a9754U, 0x3bf0db45be4b6d91U, 0xbe96af603df8cff9U,
  0x3ec9b408bebc2965U, 0x3c669ea7bc6a5b45U, 0xbea6025a3e4c4d9aU, 0xbde312a23ca01dceU,
  0xbca00b64be2c36e0U, 0xbe466f5abb5c6826U, 0x3b345c193e5ba9bcU, 0xbe02a4babdbbfa25U,
  0xbd9eef38bda38053U, 0x3e066cd83da9456eU, 0x3d7b39713e22aec6U, 0xbd0d4917bd5f5559U,
  0xbd5cfc02be04b0fdU, 0xbe1df05dbe0b5370U, 0x3e12dbc43dbc30ceU, 0x3de27515bcc4a753U,
  0x3e7c486cbe396c0bU, 0xbe401964be51cb79U, 0xbdeca72ebc264a07U, 0x3e8b56aa3ddb4556U,
  0xbe7c88eebe2c0bf4U, 0x3e97e94c3dee2a22U, 0xbdbce6883e534806U, 0x3cdf3f343e59d242U,
  0x3e5640f0bd4da31aU, 0xbd6dbceabd7c09eaU, 0xbc2ef0533e27818fU, 0x3cbc46febe42e537U,
  0x3e661f573e062cc6U, 0xbdffab003c0cf17dU, 0xbbda2493be0878eeU, 0x3e4e14c03db6a293U,
  0xbe265adbbef12cbdU, 0x3ec36ecdbdcc3eadU, 0xbe09c3b33e4a5fa5U, 0x3e8b2fc5be4519c3U,
  0x3d8ad3c9bdf47980U, 0x3bb41a0bbcff247fU, 0xbe047cc5bdbde61cU, 0x3ebe4ff8bdd144baU,
  0x3da1cf7b3d13e3d0U, 0xbe4500fb3d83f769U, 0x3d413d723e0f499bU, 0x3c61b1b8be40bd40U,
  0xbebad9453dca7e5eU, 0xbdb779bf3d851ac2U, 0x3e654e2b3dc1e50cU, 0xbd01e509bdc09332U,
  0xbd71fd0f3e2075c9U, 0xbe0438c33e453556U, 0x3dd5b0bcbe088fa6U, 0x3dde7058be8d4bfeU,
  0x3d9e9768be2bbd49U, 0xbd9428713dd6cd3eU, 0x3de5e36fbdcc0f25U, 0x3dbe19ae3e16b00aU,
  0xbe0b993dbd773bdbU, 0xbe0353903def88efU, 0xbd2f3bcc3e004b4dU, 0x3e03d6e1be1e47aeU,
  0xbe6432123e8ea30eU, 0xbca5962c3e5e83b2U, 0x3e23b3783cad0d28U, 0x3d4b86bfbc2f89dcU,
  0x3d7563d33dfea404U, 0xbe52894a3e15feb0U, 0x3e6078943e26fea6U, 0xbde13ddc3de20355U,
  0x3e41fdb83d050bc5U, 0x3e27d6acbdda8ab3U, 0x3db0aa9d3d2d1e12U, 0xbdb38a34bc5c69ccU,
  0xbb9e8f8dbcb31830U, 0xbc196d463edb957eU, 0xbdfb462c3d8504bcU, 0xbe9362983dbf26feU,
  0x3dc3965dbe094e2cU, 0x3dcce97b3e72790dU, 0x3d279a62bdca21feU, 0xbe1d4b3ebcfb8cd3U,
  0x3e28b7cc3bb85f76U, 0xbe2ff46e3c95f052U, 0xbd5aee15beb7195bU, 0xbdae9f313e196a00U,
  0x3e2bc82c3dc60bc3U, 0x3d103eaa3eb62ebfU, 0x3ddf6a49bc4d5e42U, 0xbe90423e3e69404dU,
  0xbd39d4d23d967fa8U, 0xbcdc3c62be8d600eU, 0x3e6515c1bee5f5a1U, 0x3e2a5415bda0b61dU,
  0x3e14c17fbe91034bU, 0xbe6968213dbceaf2U, 0xbe2ea9143d528957U, 0x3cf9321b3d446d54U,
  0x3d963a30be24065eU, 0xbde3fed23dfe9106U, 0x3d37a6423d31228fU, 0x3dffa1b3be320261U,
  0x3d80a6403d2b2d0dU, 0x3d797e4dbd7d7c11U, 0x3bc7c830bd068831U, 0xbddd6114be137fdcU,
  0xbdb457a4bd5539cdU, 0xbe5069313e39b808U, 0x3d789cf93df64010U, 0x3e1966d4be25f4bfU,
  0x3dedf3373ce8a510U, 0x3ced6db2be4f2a83U, 0x3df46bca3ddddd57U, 0x3de2a11bbe7656ebU,
  0x3da95e683ec4d1a8U, 0x3e9f00bbbe42e75fU, 0xbdb66ab93db6b9b6U, 0x3c86c134be6c7c34U,
  0xbce2b1c83dcfc6b3U, 0x3d28038f3df25a7dU, 0xbdecf91e3df5b5e6U, 0xbe3a83b4bdd808acU,
  0xbe188990bd5ec202U, 0x3d1b53d73da26f72U, 0x3e855f1c3d3d30c1U, 0xbdecc6d6bbfd1470U,
  0x3d0bee673d3a6396U, 0x3e2549c33de38e44U, 0xbd4bb0a9bd1fcf89U, 0x3d2c7f34bda870dfU,
  0x3deddb06bd2203cfU, 0x3db966e63e1d2a28U, 0xb84dbc723e3b0339U, 0xbd245e00bd174e99U,
  0x3de76ccf3e1c0420U, 0x3e2733ecbd025a72U, 0x3e595a04be12aff7U, 0xbd7abf173de3d078U,
  0x3e0944723de0ee84U, 0x3c8079d43d951e72U, 0xbdd0c864bcef7dd1U, 0xbd631b903ccc24d9U,
  0xbabd8a173d90209aU, 0x3e29e9133cc2ac19U, 0xbc7081a83c6eb63bU, 0xbbc5d0c43e1da5c6U,
  0x3d5da51dbd2809d1U, 0xbda429193e4f97d5U, 0x3e479f5a3c5c7950U, 0xbe0cbddf3b721c22U,
  0x3e5636adbd979395U, 0x3cc76d113e4a6764U, 0xbe03bc4cbe489156U, 0x3d9ac6b4bcef5d39U,
  0x3e14d8f9bc895ae8U, 0xbde90922be2e6e07U, 0xbe8529b2be2c1105U, 0x3e0fe6833d34f0daU,
  0x3cb290403dba93b6U, 0xbda6ef6abe0ea8afU, 0xbe217219be5a091cU, 0xbe213a7fbc4737e6U,
  0xbdfb111cbe54c48eU, 0x3e8fe6d2be85b696U, 0xbde651a4bdec5871U, 0xbd67536cbee5704bU,
  0x3d04d49a3ec2ab6cU, 0xbd8acc393e61592bU, 0x3d89e18ebe45d432U, 0xbdacfd9bbe89716eU,
  0x3e8fe44abdc70b56U, 0xbd9b08023dc7b23eU, 0x3d97e24fbeb75373U, 0x3d9870773e991a6cU,
  0x3e0542a53da514f8U, 0x3e079f1a3e5a7383U, 0x3e894289beb35ee4U, 0xbd0534d8be1d8276U,
  0xbb8fa01f3dc38840U, 0x3dad5c65b9fa9d8dU, 0x3e0739fa3e70d6eeU, 0xbd29b861be33aa0aU,
  0xbd2ae3463e0b5c97U, 0x3c2141493d69e93eU, 0xbe1348dfbe0dca95U, 0x3e32d15dbe7d41feU,
  0x3e411363bd9c5554U, 0x3e352b553d3139c8U, 0x3e3824bebed860a2U, 0xbedfae703cc82d66U,
  0x3e0cebda3cf4f5aaU, 0xbc88259dbcd64670U, 0xbd4eb2e93d4bd5a9U, 0xbe20c8963debcb9dU,
  0x3da9e6e9bda10424U, 0x3d365190be91a946U, 0xbc842d98bcdb941aU, 0xbdc882d5bda17ea3U,
  0x3bdabf50bd0e3b23U, 0xbc3d151d3dd45dc6U, 0x3c861fdc3c7b9304U, 0xbe51d2c93d61dc36U,
  0x3ead0abbbac4fcddU, 0xbc9416023d7115dbU, 0xbe2e1c8f3e3fd566U, 0x3baf2e963d651fffU,
  0xbcd39b383aa77a85U, 0x3de080c2bd73fcb5U, 0xbb17841bbd08174eU, 0xbdee5bd33db35e65U,
  0xbe089841bdc151c7U, 0xbd19dc59bcedc54dU, 0x3da2dc2bbdffef17U, 0xbdbba9b93e9644aaU,
  0x3d95d3f33ce9c332U, 0x3dd6978e3dfa312aU, 0xbe483764bd2a323bU, 0xbd47e2f13e0b1ef3U,
  0x3d7d31d83bd14464U, 0xbdcc681bbdf0706aU, 0xbd8be87e3d491816U, 0xbdfac8583e22395aU,
  0xbe185e49be1e0585U, 0xbcbe167fbe2a133aU, 0xbd819a01be116c55U, 0x3c61a8083cf15743U,
  0x3e85af7fbe0885b2U, 0x3ea02611bd73cfd9U, 0xbd3c81223dd530f8U, 0x3da223c13cf417b3U,
  0xbe52ce9b3e0fe00dU, 0xbc1aba973e8cf72aU, 0xbd9604023d244f56U, 0xbd5633aa3e7e2caeU,
  0x3df0b69cbe6bf3e9U, 0x3c60c9293c31c8c5U, 0x3e2206563de59701U, 0xbcedbc953e140caeU,
  0xbdc38961be7cdb2dU, 0x3d90e733bd140905U, 0xbd85af2dbd00ba88U, 0xbd61a8f1be2eddc1U,
  0xbe8185643d8343c4U, 0x3e52127a3e4bbc6dU, 0xbdfe3759be4d725fU, 0x3d2e7ada3df595f9U,
  0x3dfd3d45bd34bf8aU, 0x3e85abc9bdd7aab3U, 0xbd9695bfbdac6673U, 0x3cf286a5be1f0e46U,
  0xbd655dde3b84b581U, 0x3e440f7e3da221f1U, 0x3cfc4650bdde5f74U, 0x3da644e3be2e58aeU,
  0xbd599a02bd908584U, 0x3dea9aec3e5b52faU, 0xbb3e26f1be9923d4U, 0xbdc9982c3d126ccbU,
  0x3db83bd8bdde8f52U, 0x396925b8bd950648U, 0x3e1b651d3e4e88cdU, 0x3e5a7734be372688U,
  0xbd80cdf5bd4f8a2aU, 0xbdbbf3ef3df88707U, 0xbca248f2be37f025U, 0xbd122792bbfc2033U,
  0xbd8fbb15bd7a8965U, 0xbd58d9f0bde37598U, 0x3de7ccb13e164513U, 0xbd6c5ababd35b7fbU,
  0xbceca062bd291e4aU, 0xbd0787bb3d25fdeaU, 0xbdddf84ebea06038U, 0x3db865f9be904593U,
  0xbd5aab133db682e6U, 0x3dbde36d3e2affd4U, 0x3e045bf4bbeedb01U, 0x3c799d7c3dc027c5U,
  0xbe8348d0bd0e9390U, 0x3dcc64b03e59ca1eU, 0x3d1b1af83b37457cU, 0x3d5a740fbdf74dd0U,
  0x3c7f14083e354e6cU, 0xbe8889093e486dbdU, 0xbd840e563d8b32d8U, 0xbe2b10debe019e31U,
  0x3e2c85f53e1ee871U, 0xbd61edd7bcebf439U, 0x3d89db3a3e0d03d9U, 0x3cbb6f723e516563U,
  0xbd07be223e3a4035U, 0x3cee25723e3ea5d7U, 0xbd6fd0ea3e2e0bf9U, 0x3daec7bbbe70e37dU,
  0x3e56472b3d753f37U, 0xbe23662b3d4d204bU, 0xbd5ab7fe3e50e114U, 0xbe93fb583e245001U,
  0x3e3b0cc23c06f3a6U, 0xbe139c17bb77c6f3U, 0x3d68afedbe50a428U, 0x3d708272be0997f2U,
  0xbe2342053d8c16baU, 0x3a04b37abe094272U, 0xbc38a66a3c8e7a1bU, 0xbd108fc83e01f351U,
  0xbe54142abd733f78U, 0xbd3816ddbb7f47f0U, 0x3da868763d839ab8U, 0xbd63fc643e37b246U,
  0xbe883ee63e2a5115U, 0xbe1576a7bd130f0bU, 0x3db0cb98bc66f0f2U, 0xbcb24c0f3b87d8f6U,
  0xbb3ecba9bdbd5cc8U, 0x3dfcbef2be194081U, 0xbcab1154bde39c4eU, 0x3e489b963e0d083eU,
  0xbde812e8bcd105e4U, 0xbd3453f2be2b5b3fU, 0x3ca71d3bbdb8e893U, 0x3bbf00f13c62ab9bU,
  0xbec498da3de7b74fU, 0x3e0631b43c32d73fU, 0x3e494e95bd0daa66U, 0x3d5bd6a5bcb94a9dU,
  0x3e1764bcbcdde0efU, 0x3d5470c33df1eb32U, 0xbbef330d3e127e5cU, 0x3e903001bcc8fdeaU,
  0xbca5b773bd4fb03bU, 0xbd31683cbdaf3ea9U, 0xbc142a5cbe6c4db4U, 0x3cbcbb61bd73d225U,
  0xbe61da89be424e01U, 0x3df6c4893cc9db84U, 0x3c9491e1bd75f1ccU, 0xbe295c9a3e1e5c05U,
  0x3e6f319abe93f439U, 0x3dc34fcd3d54a150U, 0x3c9867d33bd7338cU, 0xbd902553bd11d491U,
  0x3d105cd73a38ae55U, 0xbe0eb1bd3e4a9106U, 0xbe584ad5bdbf0ea4U, 0x3e17b4df3d94c788U,
  0xbd8fc01bbe88d60dU, 0x3dfb7b35bde50a67U, 0xbd92e339be6dd92aU, 0xbd86912abdc0d191U,
  0x3cb93929bdcae7abU, 0x3cd98aacbe209b82U, 0x3c07318b3e09c198U, 0xbd4517ed3dd31645U,
  0xbe19c12c3e37515eU, 0x3d9ad9143e27577cU, 0xbda0cfecbcf0153cU, 0x3e5e849fbdec666aU,
  0xbd991554bdb2a127U, 0xbc6d7b79bc910b4aU, 0xbdf493d9bdd5198fU, 0x3e035525bc8e76d9U,
  0xbd96152cbe67168fU, 0xbd81f4abbd85dc64U, 0xbdff2fdcbdc3e52cU, 0xbd571017bcaed351U,
  0xbdce8d78bd2ee433U, 0x3ccf76913c89481dU, 0x3ccc1df8bd0f04d7U, 0x3de6ee14bd928f85U,
  0x3d760108be4b8e69U, 0x3f090fccbf917d0dU, 0x3f5acc70bf7e4f3eU, 0x3e63b792bf1f9e45U,
  0xbf86fc62be3396b8U, 0x3e5f5093bf80d841U, 0x3eb86ed73f3f3755U, 0x3f1bcd273e9f696fU,
  0xbe8af6633fa6fc94U, 0xbedbc3013f1042b1U, 0x3e9cc4753f112226U, 0xbdb275103e0e36c7U,
  0xbf517e6c3e65efa0U, 0xbf0523a83f836e18U, 0x3dc77c2cbeca4dacU, 0x3f7334dc3efd1b08U,
  0xbd682b683e8934f9U, 0x3db5ba203eafa138U, 0xbea67f2dbd89a988U, 0x3dda12abbc9c13dfU,
  0x3d0402643e21b0f6U, 0x3d8150c13e2f9bf2U, 0xbd5aa824be5f0b2cU, 0x3e26db4c3d47a46cU,
  0x3da92ab13e48e725U, 0x3e3c7e2f3e0a71b4U, 0x3e1955dc3e2616f0U, 0x3d4bcf1f3daab45aU,
  0x3cc913aabdaf611aU, 0x3da57707bdd4e8a1U, 0xbe462e773dea8ab1U, 0xbc84c4d03e14d706U,
  0xbc8809033e95eb69U, 0xbd40962d3d9166a5U, 0x3e0b4ed3bd69fe8fU, 0x3da173f33e352227U,
  0xbe16298cbd833e05U, 0x3e0ba856bd38461fU, 0x3d0962d83daac071U, 0xbcce414cbdbe7e61U,
  0x3daf88463dc287c0U, 0x3dfddd123e196c83U, 0xbd5117a93e2792d0U, 0x3e34d52ebd319c96U,
  0xbd86627ebcca4c53U, 0x3da5152bbceac24cU, 0xbe4a66ce3e116fceU, 0xbe0ea078bd8498eeU,
  0xbc40ae8dbe7f623eU, 0xbde24dafbe3caa9dU, 0xbd97ad18bda43b70U, 0x3d2bb5b13debd900U,
  0xbcc18f86be753e4aU, 0x3e38dcf2be8fe89aU, 0x3e180c993da983bbU, 0xbe7376a53e4cb849U,
  0xbd818ca6be6ddb45U, 0x3ddfd8e1be2c4aedU, 0xbe387a78be7672f0U, 0xbd2a4a8cbe8c492eU,
  0x3dd886513db4007cU, 0xbe1794853d0758f5U, 0x3e54b457bd04411fU, 0xbdf2d8d0be50cc56U,
  0xbdbc7bf2bde5ecffU, 0x3d68c79ebe07ed44U, 0xbdf75699be4302aaU, 0x3dfbcfc3be564570U,
  0x3e6546fd3dd4a5e0U, 0x3ecb37c1bd25472aU, 0xbd8f6ee5bd0af0bfU, 0xbe8ba25cbe0b2aa4U,
  0x3eaeecadbd1a1619U, 0x3e0ca3cb3e859acfU, 0xbe2e66febe1084ceU, 0xbec4e9f2bd85f1d0U,
  0x3d7f2f24bdcf8244U, 0x3e3f43f3bdbc4f7dU, 0xbd18fb7abe83cde5U, 0x3e71890bbea6309cU,
  0x3e2d9e78bc66d871U, 0xbcd3869f3e2d320fU, 0xbe247c803d817f32U, 0xbda5a899be502334U,
  0xbe01dcf33e6b3bd5U, 0x3e1d8161be7c9281U, 0x3e816a023e3f992bU, 0x3e34c3d4bd8705a5U,
  0x3bc730b03e6b6bcbU, 0xbe2a906c3ca903efU, 0x3e85f04d3e392cc2U, 0xbe2e52673c9a839bU,
  0x3ca413f73de3f2f9U, 0x3e7723323e5b76d1U, 0x3e7f8f353a36a54dU, 0x3e00c761be0be1b5U,
  0x3e574aa6be38eec9U, 0x3e25d4b6bd8ce551U, 0x3e0e9a95bd55545cU, 0x3de408af3c22cab6U,
  0xbe3af0d7bd72b101U, 0xbd03b8873b67e746U, 0x3e827890be3903fcU, 0x3e17aca43dae1330U,
  0xbe24454d3e452f84U, 0xbe8aae6bbeb47869U, 0x3e2ef53c3e9a2142U, 0xbbea5dfebdd9437aU,
  0xbe240efc3c120972U, 0x3deac2e43e6c71b0U, 0x3eba9bc0befb703eU, 0x3e15c0e8bd98d0d1U,
  0xbd4964a6be4a3b08U, 0x3eb0fef43e0f76c8U, 0x3e20701c3df4680dU, 0x3ce73e643e0ec84cU,
  0x3d0cf54f3d334477U, 0x3d7af816bd13dfdcU, 0x3e9edfe0bd8dffccU, 0xbe7523ff3e8767d6U,
  0x3dc425cebd997790U, 0x3ebee8db3e412278U, 0x3dfb30e5beb0041bU, 0xbeb8f741be369e96U,
  0x3e6dacb4390e55e7U, 0x3e462dd43ddb9e40U, 0x3e5f1cbf3d97c9f2U, 0xbdc7af67bea82b07U,
  0xbe18d2c7bdd97217U, 0xbc624f873e016004U, 0x3d8c82ecbe2f06cfU, 0x3ccf3179bd03231eU,
  0xbc82b8bf3d233ecaU, 0xbdd0161d3dbab5deU, 0x3d763db0bdc9c70cU, 0xbe8495003e20eed6U,
  0x3cacbd143e3ead4aU, 0x3d0bb17abe78ab6eU, 0xbd92fa5ebd6b4d84U, 0x3c3935e1bd2a3b4fU,
  0xbe4fd931bc2a079bU, 0xbbfb1f29bc68abccU, 0xbc83802abc480edcU, 0xbe99f1b53e02f27bU,
  0xbe612aa2bd629c65U, 0xbbbf55003e27b344U, 0xbeb3b947bd107834U, 0xbecdbceb3d434f08U,
  0xbe7ab410be73afb4U, 0x3c59c7a5be2b5820U, 0xbe10a9a23e9dd9e4U, 0xbcbadea9be924edbU,
  0x3e06fd743e291d33U, 0x3e387bc13c60c753U, 0xbda303d33d0e3e1eU, 0x3e045f223e84eae0U,
  0xbd41a303be2a2f96U, 0xbe641780be3f80d0U, 0xbc81d294be2d835fU, 0xbb9f9d213eb24b00U,
  0x3c84f9aebe7f0f30U, 0xbb2c2cc6be5c5d3eU, 0x3ea0be3a3e05f31cU, 0xbe45b304bb2727dcU,
  0xbd14ffcfbd915506U, 0xbdab9c313d9df38bU, 0xbdd514bf3d29d64fU, 0xbdf3e3653c6cffcfU,
  0x3d8dd908bdb69813U, 0xbcc5e817bd0ccb4dU, 0x3cb4a28f3cbb4ef4U, 0xbe0416b53d5331c2U,
  0x3dc3c7233d9dd728U, 0x3cc45d0fbe1c1b5dU, 0x3dd6ad29bd84b7ccU, 0xbcfb246dbd9826fcU,
  0xbca6510dbdef3e8fU, 0xbdd9ac483a559f91U, 0x3e379daf3e1f2768U, 0xbd8ad6d53d57030cU,
  0x3c73551d3dd1980dU, 0x3dd3e0e63b920fbcU, 0xbb929df73c6c41d0U, 0xbda5fa403e3142b9U,
  0x3e29bbccbe5c5e97U, 0xbcbfd73bbd9d5ba8U, 0x3d997c96bd107c39U, 0xbdbc48773d463344U,
  0x3dc0de883c3e20e0U, 0xbd52958fbdadd3f0U, 0xbe0c0fcabd987bcdU, 0x3ca628dcbddfd0bcU,
  0x3dbc9e42be054aa8U, 0xbd4329c53df2fdb7U, 0x3cad95ad3db0601cU, 0xbde53d6d3b8b07e0U,
  0xbad73c4e3d9478e8U, 0xbd856173bdf39fa1U, 0xbd6dde7dbd531380U, 0x3d9b8b6f3e41df56U,
  0xbdbed0c7bcf550a0U, 0xbdafc8e5bddd4da1U, 0xbdac4c4dbc67a93cU, 0x3d3bcd40bcf32965U,
  0x3e5a6d3b3dd19d17U, 0x3e021e58bddf93d9U, 0x3d0106a23d848f03U, 0xbd69c60dbd5c159aU,
  0x3d9e5204be8528e7U, 0x3e625fc93dc3c931U, 0x3e1c4f12be4d92f5U, 0x3ec56ac93cb4905fU,
  0xbd8bb23cbc9b3db4U, 0xbe7410c93e12ed35U, 0x3e2059253ce8e3b9U, 0xbe9bbaa03dfdfa68U,
  0x3d1038e53d94c4daU, 0xbd8a75413e67f82dU, 0x3c626072bcd67a75U, 0xbd30d6aabc62d9bbU,
  0xbcbdc0a0be4db912U, 0x3cec709b3c8e9047U, 0x3d8be1153daafa93U, 0xbd3c6bfb3dc36c94U,
  0xbe0e3b8d3deea9e9U, 0x3e0a707a3b81c5cfU, 0xbe0f3f8ebd9f12dcU, 0x3de844ebbce11ddfU,
  0x3d29d8c43e0a91b7U, 0xbe29b687bda11faeU, 0x3e057ff8be1362ccU, 0xbd688b473c39b022U,
  0x3d5991c9bd862530U, 0x3d0897ac3e1b8d02U, 0xbd2e7334bc48214dU, 0xbdc95139bdd55a79U,
  0xbe5bc769be34477dU, 0x3e13c8363e2f3d44U, 0x3d228c51bdf4a048U, 0xbe1c0ccbbd92eeaeU,
  0xbc9c1840be07508aU, 0x3e212466bd01ffbfU, 0xbdd3f3f53d7b0b78U, 0x3b3ee4e6b982ffc8U,
  0xbd86aecc3e3b9867U, 0xbe941383bda23143U, 0xbe389150be63a045U, 0x3e36a8503da172ccU,
  0x3e43ab5e3e545babU, 0xbd01da11be8f6323U, 0xbc4a68513e3a5f38U, 0xbd1473f8be1707bcU,
  0xbe895a34beb78b11U, 0xbc9e342cbdc4aaa8U, 0x3dd926963e37931aU, 0xbe2521043e4122c9U,
  0xbdc362c53e089374U, 0xbdf940663d4771a9U, 0x3d804a39be3666bdU, 0xbea557333d1dce2aU,
  0x3da6d1503ccff455U, 0xbe49260f3e3582deU, 0xbe5a9107bc27151fU, 0x3eb3833c3dd7552cU,
  0xbd7a2a9a3966fc56U, 0xbe54dfcbbeabd4fbU, 0xbcd026b0bee78713U, 0x3e1f6c02be4895c1U,
  0x3c4bc30dbe0d1ab6U, 0x3e4f688fbdec4295U, 0x3e2f307e3df56b5eU, 0xbdd0905bbdfc22e8U,
  0x3e7be47a3d450eabU, 0x3d425cac3e0e9d86U, 0xbc4bbbe23e49dce0U, 0xbda469883c4a223dU,
  0x3df09296ba86b6b5U, 0xbd4b811ebdccd9fbU, 0x3d973302bb96082fU, 0x3e089e6d3d7627ceU,
  0xbe1207d13bd9dfc4U, 0xbe8c7c69bddae002U, 0x3e7dbdddbe01e168U, 0xbdab78e5be3e3046U,
  0xbe5db13ebe4427cbU, 0xbd2fe97abd977118U, 0xbca85f103df50a1aU, 0xbd7fe0543e5dce2dU,
  0x3d9e160dbcb7361dU, 0xbc34d7ddbbc4d178U, 0xbd9eb7223e8f2defU, 0x3d2913df3dc1ba80U,
  0x3e88ff39be761e17U, 0x3de435a53df56ebdU, 0x3d49d9203eafc604U, 0xbe973f9bbea76a28U,
  0xbe2c95d9be780625U, 0x3e94e7d73e30f163U, 0x3e0a90663e03183fU, 0xbe163d803de92fd7U,
  0xbe8673d0bdd7bc14U, 0xbe0b221fbdbccc5fU, 0xbdaff1cbbc11fd8cU, 0x3e0e5e12bd45a887U,
  0x3e1af3c03d918e34U, 0xbd33b8b2be4ab1d7U, 0x3cf00f4e3e23b3e9U, 0xbdba515abe31c9cdU,
  0xbd0f0670be906f6bU, 0x3d8063f2beaaff6eU, 0xbd3806f73e31bd14U, 0x3dec0cc03df239c7U,
  0xbe3f3335bd9027e8U, 0xbdbf56a3bda9e975U, 0x3df9d339bd1a127bU, 0xbe79602d3ccb97d8U,
  0xbe897dc7be2b6331U, 0xbddc1c5c3d452ba6U, 0x3c8fd533be7168abU, 0x3d98604d3d99e7ecU,
  0xbd30e6bbbd84c6b7U, 0x3ddb908bbd986305U, 0x3ca860ff3d9858c7U, 0x3c5ea33cbe58082dU,
  0xbd03117a3dc16a22U, 0x3d46c4223db79b06U, 0x3cd67eecbde61b96U, 0xbd55cec7be22fcdaU,
  0x3d5eb7283d8048abU, 0x3dbbb72cbd36e1d6U, 0x3da5a985bdb1679fU, 0xbe2d9a4e3d815223U,
  0x3cc7f4bebe37e36dU, 0x3d392a41bd8da3dbU, 0xbd4f94523dfc3f8aU, 0x3e53dc5bbd5d6b3bU,
  0xbc9aca89bd9121eeU, 0xbbbbcefd3e1377d6U, 0xbdf394803e5f356fU, 0xbc967d4cbe9461eeU,
  0x3d1c8c4a3e19ca02U, 0x3d4e40153e063cc8U, 0xbe22a420be05d03cU, 0xbe092037bd882892U,
  0x3d0a2b27be847311U, 0x3e51cb213d1ed981U, 0x3e1afb6cbdfb7b68U, 0xbddccad93c7179a0U,
  0x3e13eba2be73faddU, 0x3ce3fc78bd9f2466U, 0xbe430e1a3cd69c1aU, 0x3d59a10cbe4a88c4U,
  0xbdb8b108be0237f4U, 0x3c4423b73e039481U, 0xbef5b3733d39f1f1U, 0xbe131b743dfbbb70U,
  0xbe8716123e8d7539U, 0xbea51d0bbca85f93U, 0xbe65d68ebe07cf78U, 0x3e3750493e79dcd8U,
  0xbd2e71143e1dcb6eU, 0xbe9f9061be1a37beU, 0x3d1d6a5dbdd57fa2U, 0x3d6d80723da8c5ebU,
  0x3e445a753d5cf185U, 0x3eaa26f03d22377fU, 0xbdaf118f3e8f6bb3U, 0xbef46a723dc084d2U,
  0xbe2352cf3e8321beU, 0xbbefd451bde6d2f0U, 0xbdf2dceebea177b5U, 0xbe4cf609bd9f2158U,
  0xbea08b453e062948U, 0x3db967e63e7a57c5U, 0xbd3404cf3e3d7a1dU, 0xbe09ea693d9b60bbU,
  0x3dc894d23dbb01fbU, 0xbddc36083eb26a7eU, 0x3e2f75313c177d55U, 0x3adc574f3d30e11aU,
  0xbd8791babdba79d3U, 0xbe54e414be8f9412U, 0xbe8681c0bd9e90feU, 0xbe26b760bddccfd2U,
  0x3e32f789bd48035aU, 0xbd955218be665e4bU, 0xbd237aabbca9454fU, 0x3db04c06bce57348U,
  0xbcbae56abd7b6677U, 0x3e3e9a18be271278U, 0xbe0639d83e24db20U, 0xbdeadabebe0826e8U,
  0x3d3dc443be8dcf81U, 0x3d0666f73dabae05U, 0x3edca1e53e195b27U, 0x3c2ee8f83e0b045eU,
  0x3cd89c1dbe1e292bU, 0xbd4c54b5be7e18aeU, 0xbed872fbbe883080U, 0x3e35344d3e1928d4U,
  0xbd303f5f3db6e944U, 0xbde406a13db502f2U, 0x3cf07d14be14f234U, 0x3e37d4e1bda18b79U,
  0xbba052e4bd793c49U, 0xbc15027c3ca3566cU, 0x3db19197be2271c8U, 0x3e3f16e33c9cfd24U,
  0xbd932b3f3e58ad5dU, 0x3d7e9fc43dce225bU, 0x3de0b0dfbd21d957U, 0xbc94c259be157a82U,
  0xbdca2e79bdd58cc9U, 0x3db2ed0c3d5a0517U, 0x3db3a541bd18b16bU, 0xbdfdc1b9bd5b21abU,
  0xbe0b15c83dd13722U, 0xbd95cb2b3d831de2U, 0x3cf25a51bdc7ca39U, 0xbd175f52bdaa8786U,
  0x3dfb6c78bd8718deU, 0x3d1c8f7cbe1b1bd0U, 0xbc3b6f1abdc30dc5U, 0xbad52462bb734f91U,
  0x3bd64b5d3b83e22eU, 0xbc9acc0abcf9c196U, 0xbd6915bc3da03d5aU, 0x3dadedcfbe4cf902U,
  0xbe2658b63d63d224U, 0xbd707ac83d8a7b7dU, 0xbdfa79333d6858e2U, 0x3d0b5a2cbe0b18b1U,
  0xbb330583be267ee4U, 0xbe85d7c2bcbeb711U, 0xbd5d0767bd8b64f4U, 0x3e064ba73dae6f77U,
  0xbd14ae16bdeef589U, 0x3d056489bc86ee75U, 0x3cc844cd3dae0077U, 0xbde239743d7530dbU,
  0x3cc7e4b63dcc3f40U, 0x3e0917a33c84ebbcU, 0xbdd7ad713d06e7a2U, 0xbdaceb2fbe94ba8aU,
  0xbd130f063e0f4e82U, 0xbe1d500f3d3d84f7U, 0xbd6876d03e5e54e4U, 0xbc519e1dbe0d34bdU,
  0xbd78934f3e25d4dfU, 0x3eb1c279bbaefb0fU, 0xbd5405ecbec00923U, 0x3d5280313d458816U,
  0x3e057f463e6ed45dU, 0xbe857188bcc3952cU, 0xbda26c6cbd54f7d6U, 0xbe247204be680a09U,
  0xbe8562323e0a4984U, 0xbe48dc88bddb5c02U, 0x3df5cdd83d3533c8U, 0xbd7ab9c03e2ce3f4U,
  0xbc1d11a5bcac163aU, 0xbd7269eabe112610U, 0xbe4154d4bdae644aU, 0xbe2e48fd3debb71fU,
  0x3e22f9e1bd8424ceU, 0x3e4ab9a33e0d9c4aU, 0xbdf13f443b9014f0U, 0x3cc03780bc8f7f7aU,
  0xbde81fe83d21210aU, 0xbe492ad5bd00ddd5U, 0x3e0aa7083d383189U, 0xbdb92873be438300U,
  0x3b7b2ed83c51bb6fU, 0xbd2d7c443d2a8a5eU, 0x3df061fe3d9f74fcU, 0xbe253237bd132dbbU,
  0x3dac6440bd4f9926U, 0x3d61c28bbe42a419U, 0xbd7b9abcbdaf77d3U, 0xbdd7610e3beaa6bfU,
  0x3e663b65be396d5eU, 0x3e0a6e053e2edb45U, 0x3e1884233db1f775U, 0xbdcfa6383d917b1eU,
  0xbe189bbdbdd6798cU, 0xbe4e2ecabd775102U, 0x3e23b64ebe1a889fU, 0xbdc1d77dbe1dac0dU,
  0xbcd9b029bdcd124eU, 0xbe3dad5b3de5e398U, 0xbd3ce5b5bdc21c4bU, 0xbb9a4ab03e4684f7U,
  0x3eb1adf4bd6802f2U, 0x3e19ce06bd5fc30bU, 0xbc2215eb39a4437dU, 0x3c0eb05dbd823b85U,
  0x3ca9b737bc197bbbU, 0xbcf6f474bbf767afU, 0x3cac6dfcbddb829fU, 0xbe1df9813e3710f4U,
  0xbd5da92d3decc128U, 0x3e5e0a853dd78e86U, 0x3d95938bbc77df8aU, 0xbdef2e2abced2710U,
  0x3dc192adbd8ef2dbU, 0x3d2a51263e16a6c9U, 0xbd904e42bec4ddc9U, 0x3c772dd2bd9872ceU,
  0x3e3297fd3e49eff2U, 0x3e50298b3d883cafU, 0x3d23bc9b3e083477U, 0xbe115cab3cf5c9abU,
  0x3e22baca3d41828cU, 0xbd1c00bf3be36dc9U, 0x3e419862bdb114c2U, 0xbdd1a4b23d9a34afU,
